{
  "256": "<|endoftext|>",
  "257": " t",
  "258": "he",
  "259": " a",
  "260": " s",
  "261": " w",
  "262": "nd",
  "263": " the",
  "264": "ed",
  "265": " b",
  "266": " to",
  "267": " and",
  "268": " h",
  "269": " f",
  "270": "in",
  "271": " T",
  "272": " wa",
  "273": "re",
  "274": "it",
  "275": "ou",
  "276": " l",
  "277": " d",
  "278": " c",
  "279": " p",
  "280": "ay",
  "281": " m",
  "282": "er",
  "283": " was",
  "284": "om",
  "285": " The",
  "286": " he",
  "287": "is",
  "288": "ar",
  "289": " n",
  "290": "im",
  "291": "on",
  "292": " sa",
  "293": "id",
  "294": "ll",
  "295": " ha",
  "296": " g",
  "297": "at",
  "298": " S",
  "299": "ing",
  "300": "ot",
  "301": "en",
  "302": "an",
  "303": "le",
  "304": "or",
  "305": "ir",
  "306": "am",
  "307": "et",
  "308": " H",
  "309": " it",
  "310": " th",
  "311": "ig",
  "312": " They",
  "313": " in",
  "314": "il",
  "315": " pl",
  "316": " He",
  "317": " \"",
  "318": "ow",
  "319": "ver",
  "320": "ri",
  "321": "ut",
  "322": " be",
  "323": " u",
  "324": " said",
  "325": " play",
  "326": "ith",
  "327": " day",
  "328": " with",
  "329": "pp",
  "330": "On",
  "331": " o",
  "332": " y",
  "333": "oo",
  "334": "ked",
  "335": " r",
  "336": " her",
  "337": "ce",
  "338": " I",
  "339": " She",
  "340": "ld",
  "341": " Tim",
  "342": " his",
  "343": " st",
  "344": "ke",
  "345": " e",
  "346": " big",
  "347": "nt",
  "348": "ck",
  "349": " you",
  "350": "very",
  "351": "st",
  "352": "ve",
  "353": "end",
  "354": " on",
  "355": "un",
  "356": " happ",
  "357": "riend",
  "358": " friend",
  "359": "all",
  "360": "ily",
  "361": " L",
  "362": " they",
  "363": " we",
  "364": " had",
  "365": " not",
  "366": " li",
  "367": " up",
  "368": "her",
  "369": " want",
  "370": " of",
  "371": "\n ",
  "372": "ad",
  "373": "itt",
  "374": "se",
  "375": " B",
  "376": " do",
  "377": " happy",
  "378": "ent",
  "379": " very",
  "380": " M",
  "381": "es",
  "382": " that",
  "383": " saw",
  "384": "One",
  "385": "'s",
  "386": "ould",
  "387": " mom",
  "388": " for",
  "389": " sh",
  "390": "ittle",
  "391": " little",
  "392": " so",
  "393": " she",
  "394": "ch",
  "395": "ime",
  "396": " ne",
  "397": " nam",
  "398": ".\"",
  "399": " time",
  "400": " k",
  "401": "ound",
  "402": " there",
  "403": " named",
  "404": " sm",
  "405": " bo",
  "406": " were",
  "407": " Lily",
  "408": " wanted",
  "409": " but",
  "410": "out",
  "411": "The",
  "412": " friends",
  "413": "ved",
  "414": "!\"",
  "415": "ht",
  "416": " Tom",
  "417": "ird",
  "418": "el",
  "419": " bird",
  "420": "al",
  "421": " an",
  "422": "ake",
  "423": " too",
  "424": "ome",
  "425": " It",
  "426": "ug",
  "427": "ide",
  "428": " went",
  "429": " wh",
  "430": " hel",
  "431": "Once",
  "432": " is",
  "433": " all",
  "434": " help",
  "435": "ue",
  "436": " loo",
  "437": " lo",
  "438": "ter",
  "439": " A",
  "440": " upon",
  "441": "ry",
  "442": "ore",
  "443": "ind",
  "444": " fun",
  "445": " toy",
  "446": "get",
  "447": "ill",
  "448": "ame",
  "449": " as",
  "450": " at",
  "451": "ra",
  "452": " j",
  "453": " did",
  "454": "gether",
  "455": " re",
  "456": "ur",
  "457": " se",
  "458": " together",
  "459": "ack",
  "460": " cat",
  "461": "ly",
  "462": " tre",
  "463": "ood",
  "464": "ic",
  "465": "ted",
  "466": " dog",
  "467": " could",
  "468": " can",
  "469": " their",
  "470": "ard",
  "471": "ec",
  "472": "ark",
  "473": " gir",
  "474": " played",
  "475": " him",
  "476": " ball",
  "477": "?\"",
  "478": " girl",
  "479": "way",
  "480": " ro",
  "481": " go",
  "482": "hed",
  "483": "my",
  "484": " are",
  "485": " out",
  "486": " le",
  "487": " fr",
  "488": "ain",
  "489": " kn",
  "490": "hen",
  "491": " them",
  "492": "um",
  "493": "'t",
  "494": "ax",
  "495": " sad",
  "496": "ul",
  "497": " boy",
  "498": " tree",
  "499": "other",
  "500": " have",
  "501": " man",
  "502": " cl",
  "503": " loved",
  "504": " looked",
  "505": "oug",
  "506": " found",
  "507": " sp",
  "508": " star",
  "509": " Sue",
  "510": "one",
  "511": "hing",
  "512": " sc",
  "513": " back",
  "514": "own",
  "515": " Max",
  "516": "are",
  "517": " like",
  "518": "ful",
  "519": "side",
  "520": " me",
  "521": " bec",
  "522": " park",
  "523": "ight",
  "524": "ong",
  "525": " car",
  "526": "op",
  "527": "elt",
  "528": " One",
  "529": " liked",
  "530": " would",
  "531": " make",
  "532": "round",
  "533": " la",
  "534": " fa",
  "535": " felt",
  "536": "You",
  "537": " W",
  "538": "ell",
  "539": " see",
  "540": " But",
  "541": "omet",
  "542": " asked",
  "543": "ag",
  "544": " new",
  "545": " no",
  "546": "ice",
  "547": " Sam",
  "548": "ouse",
  "549": " started",
  "550": "ared",
  "551": " came",
  "552": " Ben",
  "553": " al",
  "554": " other",
  "555": "ought",
  "556": "iled",
  "557": " somet",
  "558": " ag",
  "559": " good",
  "560": " small",
  "561": "ss",
  "562": " br",
  "563": " smiled",
  "564": " say",
  "565": "ried",
  "566": "ade",
  "567": "ings",
  "568": "ob",
  "569": "\n \n",
  "570": "pot",
  "571": " wor",
  "572": " find",
  "573": " ex",
  "574": "ia",
  "575": " away",
  "576": "ty",
  "577": " put",
  "578": " what",
  "579": " something",
  "580": " co",
  "581": " from",
  "582": " made",
  "583": " thought",
  "584": "ened",
  "585": " home",
  "586": " playing",
  "587": "ook",
  "588": " every",
  "589": " wal",
  "590": " mu",
  "591": "uc",
  "592": "ach",
  "593": "arn",
  "594": " Spot",
  "595": " ran",
  "596": "ile",
  "597": " F",
  "598": "ie",
  "599": " J",
  "600": "ave",
  "601": " again",
  "602": " some",
  "603": " laug",
  "604": "dd",
  "605": " house",
  "606": " down",
  "607": " fl",
  "608": "king",
  "609": " took",
  "610": " scared",
  "611": " pr",
  "612": "ny",
  "613": "ure",
  "614": " toys",
  "615": " learn",
  "616": " You",
  "617": "if",
  "618": " will",
  "619": " box",
  "620": "ick",
  "621": "ret",
  "622": "ab",
  "623": "ep",
  "624": " my",
  "625": " around",
  "626": " things",
  "627": " your",
  "628": "oud",
  "629": " bl",
  "630": "uck",
  "631": " when",
  "632": "ish",
  "633": " lived",
  "634": " fe",
  "635": " then",
  "636": " sun",
  "637": "as",
  "638": " sw",
  "639": ",\"",
  "640": " ch",
  "641": "us",
  "642": "pped",
  "643": " ab",
  "644": " Mia",
  "645": "ank",
  "646": " get",
  "647": "ucy",
  "648": "Tim",
  "649": "ump",
  "650": "Th",
  "651": " lot",
  "652": "ist",
  "653": "oth",
  "654": " tried",
  "655": "ap",
  "656": " says",
  "657": " know",
  "658": " got",
  "659": "ited",
  "660": " who",
  "661": " kne",
  "662": "ust",
  "663": " many",
  "664": "nder",
  "665": " int",
  "666": " about",
  "667": "Lily",
  "668": " pret",
  "669": " dec",
  "670": " any",
  "671": " red",
  "672": " D",
  "673": "ive",
  "674": " knew",
  "675": "ace",
  "676": "ous",
  "677": " more",
  "678": "ise",
  "679": " care",
  "680": "ally",
  "681": " pic",
  "682": "au",
  "683": "qu",
  "684": " hug",
  "685": " Lucy",
  "686": " learned",
  "687": " po",
  "688": " water",
  "689": "fter",
  "690": " v",
  "691": " became",
  "692": " best",
  "693": "ause",
  "694": " op",
  "695": " gre",
  "696": " exc",
  "697": "urp",
  "698": "ways",
  "699": " outside",
  "700": " laughed",
  "701": " look",
  "702": " always",
  "703": " decid",
  "704": " show",
  "705": " un",
  "706": "ant",
  "707": " Bob",
  "708": " room",
  "709": "fe",
  "710": " decided",
  "711": " ho",
  "712": " because",
  "713": " So",
  "714": " into",
  "715": " eat",
  "716": "ite",
  "717": " jump",
  "718": " And",
  "719": " pe",
  "720": " both",
  "721": "ers",
  "722": " Mom",
  "723": " dad",
  "724": "They",
  "725": "udd",
  "726": " ke",
  "727": " one",
  "728": "nn",
  "729": " this",
  "730": " excited",
  "731": " fast",
  "732": " nice",
  "733": " E",
  "734": " feel",
  "735": "Tom",
  "736": "Yes",
  "737": " run",
  "738": " long",
  "739": " told",
  "740": " sk",
  "741": " am",
  "742": "urpr",
  "743": "our",
  "744": " inside",
  "745": "ull",
  "746": " tr",
  "747": " surpr",
  "748": " mo",
  "749": "ink",
  "750": " pretty",
  "751": "iny",
  "752": " sor",
  "753": "Wh",
  "754": " take",
  "755": "og",
  "756": " sl",
  "757": " each",
  "758": " gave",
  "759": " much",
  "760": " gra",
  "761": "lew",
  "762": "nna",
  "763": " rock",
  "764": " how",
  "765": " str",
  "766": "ara",
  "767": "imal",
  "768": " animal",
  "769": "ged",
  "770": " need",
  "771": " than",
  "772": "But",
  "773": "ven",
  "774": "etter",
  "775": " tow",
  "776": " or",
  "777": " C",
  "778": " under",
  "779": "ess",
  "780": " old",
  "781": " sorry",
  "782": "ge",
  "783": "ised",
  "784": "ro",
  "785": "urt",
  "786": " cle",
  "787": " fish",
  "788": " walked",
  "789": " clo",
  "790": "and",
  "791": " bear",
  "792": "ft",
  "793": "ase",
  "794": "ast",
  "795": " hand",
  "796": "urn",
  "797": " We",
  "798": " kind",
  "799": " His",
  "800": " te",
  "801": "here",
  "802": " happened",
  "803": " just",
  "804": " flow",
  "805": " food",
  "806": " list",
  "807": " didn",
  "808": " animals",
  "809": " hig",
  "810": "pl",
  "811": " near",
  "812": " wat",
  "813": " ide",
  "814": " try",
  "815": "ched",
  "816": " sky",
  "817": "ine",
  "818": " sn",
  "819": "ving",
  "820": " fi",
  "821": "rom",
  "822": " us",
  "823": " idea",
  "824": " better",
  "825": " Amy",
  "826": " bug",
  "827": " heard",
  "828": "gry",
  "829": " its",
  "830": " tw",
  "831": " let",
  "832": "pec",
  "833": "ate",
  "834": "ff",
  "835": "able",
  "836": " en",
  "837": " careful",
  "838": " share",
  "839": "ex",
  "840": " if",
  "841": "Thank",
  "842": " fly",
  "843": "Mom",
  "844": " stor",
  "845": "ial",
  "846": " flew",
  "847": "more",
  "848": " anymore",
  "849": " Th",
  "850": " spec",
  "851": " special",
  "852": "ion",
  "853": " com",
  "854": " lots",
  "855": " never",
  "856": " by",
  "857": "lf",
  "858": "ream",
  "859": " dan",
  "860": " bu",
  "861": " fo",
  "862": " don",
  "863": " wind",
  "864": " tal",
  "865": " clean",
  "866": "ort",
  "867": " gr",
  "868": " love",
  "869": "rm",
  "870": "ber",
  "871": " end",
  "872": " Then",
  "873": "ople",
  "874": " even",
  "875": "\n \n\n",
  "876": " mag",
  "877": " hard",
  "878": " shiny",
  "879": "udden",
  "880": " fore",
  "881": " over",
  "882": " cake",
  "883": "ak",
  "884": " book",
  "885": " col",
  "886": " turn",
  "887": " fam",
  "888": " bad",
  "889": " safe",
  "890": " after",
  "891": "ady",
  "892": "uddenly",
  "893": " Anna",
  "894": " people",
  "895": " proud",
  "896": " Every",
  "897": " surprised",
  "898": "pected",
  "899": "Let",
  "900": " high",
  "901": " cu",
  "902": " hurt",
  "903": " come",
  "904": "imb",
  "905": " door",
  "906": "arden",
  "907": " garden",
  "908": " ground",
  "909": "bb",
  "910": " opened",
  "911": " picked",
  "912": " loud",
  "913": " climb",
  "914": "expected",
  "915": " unexpected",
  "916": " gl",
  "917": " che",
  "918": "ild",
  "919": " im",
  "920": "As",
  "921": " give",
  "922": " way",
  "923": "ail",
  "924": "'m",
  "925": " thanked",
  "926": " color",
  "927": " blue",
  "928": " still",
  "929": " ever",
  "930": " hugged",
  "931": " From",
  "932": " call",
  "933": " far",
  "934": "ip",
  "935": " Her",
  "936": " Sara",
  "937": " When",
  "938": "No",
  "939": " off",
  "940": " magic",
  "941": "iz",
  "942": "ough",
  "943": "age",
  "944": "ummy",
  "945": " K",
  "946": " jumped",
  "947": " should",
  "948": " family",
  "949": " par",
  "950": "ool",
  "951": " kid",
  "952": " smile",
  "953": "hes",
  "954": "uff",
  "955": " place",
  "956": "kay",
  "957": " walk",
  "958": " now",
  "959": "ct",
  "960": " In",
  "961": " great",
  "962": "em",
  "963": "ture",
  "964": " qu",
  "965": "les",
  "966": " strong",
  "967": " stay",
  "968": " unt",
  "969": " sto",
  "970": "aut",
  "971": " forest",
  "972": "ane",
  "973": " bra",
  "974": " P",
  "975": "itty",
  "976": " frog",
  "977": " bro",
  "978": " until",
  "979": "oon",
  "980": " beaut",
  "981": "dy",
  "982": " squ",
  "983": " stick",
  "984": "xt",
  "985": " next",
  "986": " boat",
  "987": "lease",
  "988": "ning",
  "989": " happily",
  "990": " listen",
  "991": "aking",
  "992": " kids",
  "993": " tra",
  "994": "ies",
  "995": "iful",
  "996": " beautiful",
  "997": " app",
  "998": "th",
  "999": " helped",
  "1000": " dra",
  "1001": " showed",
  "1002": " clos",
  "1003": "be",
  "1004": " imp",
  "1005": " story",
  "1006": "unny",
  "1007": "oy",
  "1008": " while",
  "1009": " town",
  "1010": "rel",
  "1011": "pt",
  "1012": " rain",
  "1013": "ress",
  "1014": " picture",
  "1015": " being",
  "1016": " rem",
  "1017": " everyone",
  "1018": "It",
  "1019": "ary",
  "1020": "ree",
  "1021": " mor",
  "1022": " hat",
  "1023": " called",
  "1024": " met",
  "1025": " stopped",
  "1026": " ad",
  "1027": " game",
  "1028": "Now",
  "1029": "He",
  "1030": "Can",
  "1031": " angry",
  "1032": "ger",
  "1033": "uffy",
  "1034": " open",
  "1035": " wo",
  "1036": " truck",
  "1037": " keep",
  "1038": " soft",
  "1039": "When",
  "1040": " cry",
  "1041": " yummy",
  "1042": " lost",
  "1043": " bed",
  "1044": " Let",
  "1045": " Sally",
  "1046": " warm",
  "1047": "by",
  "1048": "vent",
  "1049": " brave",
  "1050": " mouse",
  "1051": " Wh",
  "1052": " ate",
  "1053": " Kitty",
  "1054": " de",
  "1055": "ished",
  "1056": "fore",
  "1057": " doll",
  "1058": "so",
  "1059": " couldn",
  "1060": " watch",
  "1061": " leave",
  "1062": "dded",
  "1063": " also",
  "1064": " fell",
  "1065": " green",
  "1066": " face",
  "1067": " two",
  "1068": "gan",
  "1069": "iss",
  "1070": " flowers",
  "1071": "bit",
  "1072": "What",
  "1073": " R",
  "1074": "ble",
  "1075": " noise",
  "1076": "abbit",
  "1077": "irst",
  "1078": "owl",
  "1079": " where",
  "1080": "az",
  "1081": "ock",
  "1082": " soon",
  "1083": "self",
  "1084": " slide",
  "1085": " rabbit",
  "1086": " hole",
  "1087": "luffy",
  "1088": " before",
  "1089": "irrel",
  "1090": " pus",
  "1091": "ired",
  "1092": "illy",
  "1093": " sat",
  "1094": " hear",
  "1095": " use",
  "1096": "Hi",
  "1097": " pa",
  "1098": " kept",
  "1099": "That",
  "1100": " squirrel",
  "1101": "ear",
  "1102": "Then",
  "1103": "ma",
  "1104": " nodded",
  "1105": " expl",
  "1106": " store",
  "1107": " cook",
  "1108": " hands",
  "1109": "Look",
  "1110": " birds",
  "1111": " pain",
  "1112": " going",
  "1113": " funny",
  "1114": " having",
  "1115": "day",
  "1116": " sing",
  "1117": "aybe",
  "1118": "uch",
  "1119": " ey",
  "1120": "aug",
  "1121": " catch",
  "1122": "aught",
  "1123": " Fluffy",
  "1124": " Can",
  "1125": "uit",
  "1126": " yell",
  "1127": " think",
  "1128": "leep",
  "1129": " cra",
  "1130": " fin",
  "1131": "Ben",
  "1132": " bre",
  "1133": " fix",
  "1134": " tired",
  "1135": " bunny",
  "1136": " used",
  "1137": " looking",
  "1138": " bus",
  "1139": "ange",
  "1140": "air",
  "1141": " work",
  "1142": " wr",
  "1143": " our",
  "1144": " pull",
  "1145": "We",
  "1146": " thr",
  "1147": "thing",
  "1148": " wait",
  "1149": " Now",
  "1150": " kit",
  "1151": " sound",
  "1152": "ting",
  "1153": " has",
  "1154": " jo",
  "1155": " G",
  "1156": " mean",
  "1157": " pond",
  "1158": "ember",
  "1159": " beh",
  "1160": " dr",
  "1161": " sunny",
  "1162": "led",
  "1163": " ask",
  "1164": " others",
  "1165": "ng",
  "1166": "chen",
  "1167": " kitchen",
  "1168": " talk",
  "1169": " flo",
  "1170": " dif",
  "1171": "rew",
  "1172": " Jo",
  "1173": " pie",
  "1174": " head",
  "1175": " real",
  "1176": " first",
  "1177": " tri",
  "1178": " mommy",
  "1179": " eyes",
  "1180": "ello",
  "1181": " import",
  "1182": "Hello",
  "1183": " fav",
  "1184": "ath",
  "1185": "joy",
  "1186": " z",
  "1187": " remember",
  "1188": " right",
  "1189": " flower",
  "1190": " con",
  "1191": " mess",
  "1192": " party",
  "1193": " cold",
  "1194": " Do",
  "1195": " vo",
  "1196": " swe",
  "1197": "ious",
  "1198": " sand",
  "1199": " \u201c",
  "1200": "ac",
  "1201": "orn",
  "1202": " race",
  "1203": "imes",
  "1204": " curi",
  "1205": " important",
  "1206": " duck",
  "1207": " moral",
  "1208": " shared",
  "1209": "zy",
  "1210": "ount",
  "1211": " Jack",
  "1212": " ice",
  "1213": " okay",
  "1214": " advent",
  "1215": " worked",
  "1216": "llow",
  "1217": "At",
  "1218": " enjoy",
  "1219": " dress",
  "1220": " bright",
  "1221": " making",
  "1222": " curious",
  "1223": " own",
  "1224": " tall",
  "1225": " dir",
  "1226": " hop",
  "1227": "reed",
  "1228": " hid",
  "1229": " favor",
  "1230": " ri",
  "1231": "hn",
  "1232": " sleep",
  "1233": " dis",
  "1234": "Wow",
  "1235": " favorite",
  "1236": " thing",
  "1237": " began",
  "1238": " mon",
  "1239": " bag",
  "1240": " hill",
  "1241": "Don",
  "1242": " cla",
  "1243": " draw",
  "1244": " rest",
  "1245": " here",
  "1246": " yard",
  "1247": " tell",
  "1248": " Fin",
  "1249": "ster",
  "1250": " watched",
  "1251": "que",
  "1252": " move",
  "1253": " follow",
  "1254": " bel",
  "1255": "ect",
  "1256": " cut",
  "1257": " night",
  "1258": " agreed",
  "1259": " pick",
  "1260": "co",
  "1261": " block",
  "1262": " hun",
  "1263": "aper",
  "1264": "lly",
  "1265": " stop",
  "1266": " behind",
  "1267": " This",
  "1268": "ied",
  "1269": " surprise",
  "1270": " sho",
  "1271": " hot",
  "1272": "After",
  "1273": " table",
  "1274": " grass",
  "1275": " worry",
  "1276": " dark",
  "1277": " trees",
  "1278": " voice",
  "1279": " walking",
  "1280": "fere",
  "1281": " floor",
  "1282": " lion",
  "1283": " farm",
  "1284": " top",
  "1285": " differe",
  "1286": " please",
  "1287": " ru",
  "1288": " song",
  "1289": " butter",
  "1290": " tail",
  "1291": " sweet",
  "1292": "Max",
  "1293": " shout",
  "1294": " colors",
  "1295": " read",
  "1296": " Dad",
  "1297": " lady",
  "1298": " forg",
  "1299": "isy",
  "1300": " leaves",
  "1301": " closer",
  "1302": "ign",
  "1303": " cars",
  "1304": " turned",
  "1305": " needed",
  "1306": " tast",
  "1307": "Why",
  "1308": "aring",
  "1309": " wood",
  "1310": " cried",
  "1311": " different",
  "1312": " laugh",
  "1313": " del",
  "1314": " piece",
  "1315": "ered",
  "1316": " Mr",
  "1317": " roll",
  "1318": " adventure",
  "1319": " fire",
  "1320": " does",
  "1321": "ike",
  "1322": " cr",
  "1323": " hungry",
  "1324": " hair",
  "1325": " Suddenly",
  "1326": " paper",
  "1327": " feeling",
  "1328": " yellow",
  "1329": " full",
  "1330": "bo",
  "1331": "Sue",
  "1332": " prin",
  "1333": " touch",
  "1334": " As",
  "1335": "Anna",
  "1336": "Sam",
  "1337": " wet",
  "1338": " friendly",
  "1339": " per",
  "1340": "oom",
  "1341": "ken",
  "1342": "cked",
  "1343": "ached",
  "1344": " swing",
  "1345": " fruit",
  "1346": "ient",
  "1347": " broken",
  "1348": " ready",
  "1349": "bye",
  "1350": "ppy",
  "1351": " prom",
  "1352": " That",
  "1353": " another",
  "1354": " pretend",
  "1355": " light",
  "1356": " dance",
  "1357": "ater",
  "1358": " climbed",
  "1359": "where",
  "1360": " listened",
  "1361": " Bobo",
  "1362": " danc",
  "1363": " running",
  "1364": " only",
  "1365": " plan",
  "1366": " gone",
  "1367": " swim",
  "1368": "bbed",
  "1369": "Suddenly",
  "1370": "sh",
  "1371": " train",
  "1372": "ila",
  "1373": "ndma",
  "1374": "Sara",
  "1375": " Jane",
  "1376": " close",
  "1377": "av",
  "1378": "She",
  "1379": " smell",
  "1380": "So",
  "1381": "aby",
  "1382": " amaz",
  "1383": " hold",
  "1384": " wonder",
  "1385": " blocks",
  "1386": " Timmy",
  "1387": " repl",
  "1388": " All",
  "1389": " butterf",
  "1390": " sees",
  "1391": " reached",
  "1392": " wall",
  "1393": " pu",
  "1394": "oney",
  "1395": "red",
  "1396": " slow",
  "1397": " helping",
  "1398": " dri",
  "1399": " cream",
  "1400": " cool",
  "1401": " glad",
  "1402": "af",
  "1403": " ant",
  "1404": " less",
  "1405": " been",
  "1406": " goodbye",
  "1407": " ac",
  "1408": " fight",
  "1409": "ather",
  "1410": "Mia",
  "1411": " pushed",
  "1412": " fair",
  "1413": "iced",
  "1414": " must",
  "1415": " hide",
  "1416": " moment",
  "1417": " window",
  "1418": " O",
  "1419": " sit",
  "1420": " balloon",
  "1421": " snow",
  "1422": " child",
  "1423": " explore",
  "1424": " Everyone",
  "1425": " ar",
  "1426": " wished",
  "1427": " baby",
  "1428": " done",
  "1429": " ste",
  "1430": " wag",
  "1431": " buy",
  "1432": " stuck",
  "1433": " perf",
  "1434": " thank",
  "1435": " might",
  "1436": "icy",
  "1437": " name",
  "1438": " trying",
  "1439": "ized",
  "1440": " bit",
  "1441": " coming",
  "1442": " bar",
  "1443": " quick",
  "1444": " fall",
  "1445": " apple",
  "1446": "ash",
  "1447": " scary",
  "1448": " looks",
  "1449": " build",
  "1450": " doing",
  "1451": "aisy",
  "1452": " underst",
  "1453": " win",
  "1454": " din",
  "1455": " dream",
  "1456": " dirty",
  "1457": " held",
  "1458": "ames",
  "1459": " books",
  "1460": " mar",
  "1461": "In",
  "1462": " butterfly",
  "1463": " left",
  "1464": " shouted",
  "1465": " count",
  "1466": " replied",
  "1467": "avy",
  "1468": " reach",
  "1469": " tiny",
  "1470": " through",
  "1471": "ott",
  "1472": " dro",
  "1473": " why",
  "1474": " air",
  "1475": " bran",
  "1476": " land",
  "1477": "key",
  "1478": " three",
  "1479": " pulled",
  "1480": " spl",
  "1481": " grow",
  "1482": " treat",
  "1483": " brother",
  "1484": " wise",
  "1485": " woods",
  "1486": "'re",
  "1487": " sure",
  "1488": " chair",
  "1489": "ix",
  "1490": " mat",
  "1491": "ins",
  "1492": " seen",
  "1493": " pink",
  "1494": " clapped",
  "1495": " plant",
  "1496": "ely",
  "1497": " owl",
  "1498": " cup",
  "1499": "ield",
  "1500": " sometimes",
  "1501": "andy",
  "1502": " fill",
  "1503": " cloud",
  "1504": "ask",
  "1505": " swam",
  "1506": "outh",
  "1507": " job",
  "1508": " colorful",
  "1509": " remembered",
  "1510": " bigger",
  "1511": " nest",
  "1512": " mouth",
  "1513": "pe",
  "1514": "Okay",
  "1515": " lesson",
  "1516": " cre",
  "1517": " join",
  "1518": "ph",
  "1519": " There",
  "1520": "oup",
  "1521": "room",
  "1522": "art",
  "1523": " waved",
  "1524": "uddy",
  "1525": " grabbed",
  "1526": " stayed",
  "1527": "Oh",
  "1528": " paint",
  "1529": "This",
  "1530": " clot",
  "1531": " cont",
  "1532": " clothes",
  "1533": " ve",
  "1534": "ower",
  "1535": " After",
  "1536": " waited",
  "1537": "cle",
  "1538": " quickly",
  "1539": " word",
  "1540": " broke",
  "1541": "ucky",
  "1542": " games",
  "1543": " cast",
  "1544": " blew",
  "1545": " gent",
  "1546": " Mommy",
  "1547": " enjoyed",
  "1548": " noticed",
  "1549": "Jo",
  "1550": "ries",
  "1551": "ation",
  "1552": " set",
  "1553": " likes",
  "1554": " pictures",
  "1555": "ton",
  "1556": "de",
  "1557": " sea",
  "1558": " heavy",
  "1559": " mus",
  "1560": " alone",
  "1561": " gif",
  "1562": "asure",
  "1563": " anything",
  "1564": " spot",
  "1565": " miss",
  "1566": " hopped",
  "1567": " world",
  "1568": " turns",
  "1569": "orm",
  "1570": " year",
  "1571": "der",
  "1572": " bott",
  "1573": " pat",
  "1574": " pot",
  "1575": " pen",
  "1576": "lc",
  "1577": "Her",
  "1578": " mix",
  "1579": " arm",
  "1580": " bike",
  "1581": " tight",
  "1582": " everywhere",
  "1583": " won",
  "1584": "Lucy",
  "1585": " tower",
  "1586": " threw",
  "1587": " himself",
  "1588": " followed",
  "1589": " Buddy",
  "1590": " ride",
  "1591": "man",
  "1592": "less",
  "1593": " ju",
  "1594": " je",
  "1595": "Bob",
  "1596": "amp",
  "1597": "ape",
  "1598": " comp",
  "1599": " key",
  "1600": "row",
  "1601": "\".",
  "1602": " white",
  "1603": "ctor",
  "1604": " wrong",
  "1605": " Daisy",
  "1606": " makes",
  "1607": " What",
  "1608": " break",
  "1609": "arent",
  "1610": " black",
  "1611": "ee",
  "1612": "ner",
  "1613": "Do",
  "1614": "Spot",
  "1615": " deep",
  "1616": "thy",
  "1617": " music",
  "1618": " pol",
  "1619": " delic",
  "1620": "ued",
  "1621": "cess",
  "1622": " forgot",
  "1623": " bee",
  "1624": " parent",
  "1625": " castle",
  "1626": "olly",
  "1627": "ves",
  "1628": " em",
  "1629": "iet",
  "1630": " wear",
  "1631": " hit",
  "1632": "ister",
  "1633": " quiet",
  "1634": "oun",
  "1635": " round",
  "1636": "ance",
  "1637": " stu",
  "1638": " danced",
  "1639": " vis",
  "1640": " wants",
  "1641": "ully",
  "1642": " leaf",
  "1643": " monster",
  "1644": " nap",
  "1645": " John",
  "1646": " understand",
  "1647": "ang",
  "1648": " bowl",
  "1649": "os",
  "1650": "rot",
  "1651": " bor",
  "1652": "ren",
  "1653": " talked",
  "1654": "itten",
  "1655": " dry",
  "1656": " faster",
  "1657": " cookies",
  "1658": " brought",
  "1659": "fully",
  "1660": " leg",
  "1661": "ross",
  "1662": "zz",
  "1663": " mum",
  "1664": " side",
  "1665": "ts",
  "1666": "From",
  "1667": " Inside",
  "1668": " sign",
  "1669": " smart",
  "1670": "cy",
  "1671": " rocks",
  "1672": " someone",
  "1673": "His",
  "1674": " poin",
  "1675": " sec",
  "1676": " sharing",
  "1677": " fox",
  "1678": " well",
  "1679": " rel",
  "1680": " res",
  "1681": " happen",
  "1682": " button",
  "1683": " branch",
  "1684": " Lila",
  "1685": " really",
  "1686": " finished",
  "1687": "ence",
  "1688": "ards",
  "1689": " dinner",
  "1690": " sister",
  "1691": " flying",
  "1692": "eddy",
  "1693": " contin",
  "1694": " worried",
  "1695": " ele",
  "1696": " To",
  "1697": " visit",
  "1698": " Maybe",
  "1699": " beach",
  "1700": " que",
  "1701": " secret",
  "1702": " el",
  "1703": " Sarah",
  "1704": " king",
  "1705": "John",
  "1706": "gy",
  "1707": " today",
  "1708": " perfect",
  "1709": " silly",
  "1710": " river",
  "1711": " everything",
  "1712": " Joe",
  "1713": " shin",
  "1714": " danger",
  "1715": "ipp",
  "1716": " children",
  "1717": " gu",
  "1718": " Soon",
  "1719": " field",
  "1720": " filled",
  "1721": " fur",
  "1722": " else",
  "1723": " smiles",
  "1724": " welc",
  "1725": " At",
  "1726": " wish",
  "1727": " Em",
  "1728": "While",
  "1729": " sang",
  "1730": " gi",
  "1731": "ze",
  "1732": " pudd",
  "1733": " snack",
  "1734": " eating",
  "1735": " pieces",
  "1736": " realized",
  "1737": " promised",
  "1738": "ord",
  "1739": " spr",
  "1740": " pig",
  "1741": " free",
  "1742": " continued",
  "1743": " bite",
  "1744": "ead",
  "1745": " parents",
  "1746": " carefully",
  "1747": "itting",
  "1748": "ated",
  "1749": " ear",
  "1750": "Just",
  "1751": "Maybe",
  "1752": " jar",
  "1753": " cow",
  "1754": "Amy",
  "1755": " drag",
  "1756": " blank",
  "1757": "stead",
  "1758": " orange",
  "1759": " mud",
  "1760": " crying",
  "1761": " blanket",
  "1762": " enough",
  "1763": " rolled",
  "1764": "cket",
  "1765": " soup",
  "1766": " sail",
  "1767": " purp",
  "1768": "imi",
  "1769": " yes",
  "1770": "ale",
  "1771": " drink",
  "1772": "ses",
  "1773": " snake",
  "1774": " boun",
  "1775": " pet",
  "1776": " throw",
  "1777": " laughing",
  "1778": " fairy",
  "1779": " crab",
  "1780": " words",
  "1781": " amazing",
  "1782": " bath",
  "1783": "ich",
  "1784": " purple",
  "1785": " Z",
  "1786": " without",
  "1787": "ire",
  "1788": " bottle",
  "1789": " Billy",
  "1790": " gift",
  "1791": " grandma",
  "1792": "Fin",
  "1793": "used",
  "1794": "ons",
  "1795": " past",
  "1796": " money",
  "1797": "iver",
  "1798": "fort",
  "1799": " mail",
  "1800": " Gra",
  "1801": " barked",
  "1802": " wagged",
  "1803": " att",
  "1804": "chool",
  "1805": " monkey",
  "1806": " doctor",
  "1807": "unch",
  "1808": " brown",
  "1809": " moved",
  "1810": "ises",
  "1811": " asks",
  "1812": " getting",
  "1813": " closed",
  "1814": " whe",
  "1815": " welcome",
  "1816": " su",
  "1817": " candy",
  "1818": " school",
  "1819": " morning",
  "1820": " owner",
  "1821": "gg",
  "1822": " lon",
  "1823": " mother",
  "1824": " higher",
  "1825": " treasure",
  "1826": " sitting",
  "1827": " smo",
  "1828": ".\u201d",
  "1829": "!\u201d",
  "1830": " lonely",
  "1831": " dangerous",
  "1832": " Ch",
  "1833": " living",
  "1834": " apples",
  "1835": "ush",
  "1836": " strange",
  "1837": " shop",
  "1838": "ased",
  "1839": "vel",
  "1840": " shining",
  "1841": " road",
  "1842": " creat",
  "1843": " Tommy",
  "1844": "ere",
  "1845": " paw",
  "1846": "una",
  "1847": " ra",
  "1848": "ey",
  "1849": " pre",
  "1850": " shoes",
  "1851": "ible",
  "1852": " -",
  "1853": " stre",
  "1854": " talking",
  "1855": "althy",
  "1856": " caught",
  "1857": " egg",
  "1858": "ol",
  "1859": " pass",
  "1860": "me",
  "1861": " lake",
  "1862": " runs",
  "1863": " buck",
  "1864": " wings",
  "1865": " letter",
  "1866": " chee",
  "1867": "fish",
  "1868": " mad",
  "1869": " fan",
  "1870": "asket",
  "1871": "ass",
  "1872": " basket",
  "1873": " dragon",
  "1874": "app",
  "1875": "set",
  "1876": "Mommy",
  "1877": "cks",
  "1878": " thinks",
  "1879": " stone",
  "1880": " stand",
  "1881": " delicious",
  "1882": " nose",
  "1883": " puddle",
  "1884": " tom",
  "1885": " Bl",
  "1886": " belie",
  "1887": " Mimi",
  "1888": " farmer",
  "1889": " same",
  "1890": " years",
  "1891": "board",
  "1892": " teddy",
  "1893": " bat",
  "1894": "isk",
  "1895": "itch",
  "1896": " mine",
  "1897": " sear",
  "1898": " coat",
  "1899": "ches",
  "1900": "igh",
  "1901": " days",
  "1902": " bring",
  "1903": " gentle",
  "1904": " fit",
  "1905": " start",
  "1906": " finally",
  "1907": " whist",
  "1908": " cray",
  "1909": " scream",
  "1910": "igg",
  "1911": " kite",
  "1912": " pill",
  "1913": "phant",
  "1914": "arm",
  "1915": " vill",
  "1916": " cho",
  "1917": " singing",
  "1918": "ella",
  "1919": "sw",
  "1920": " tasty",
  "1921": "ined",
  "1922": " ph",
  "1923": " ben",
  "1924": " trou",
  "1925": " herself",
  "1926": " shell",
  "1927": " hoped",
  "1928": " answ",
  "1929": " swings",
  "1930": " wore",
  "1931": "sy",
  "1932": " hor",
  "1933": " belong",
  "1934": " push",
  "1935": "Please",
  "1936": " bush",
  "1937": "iskers",
  "1938": " carrot",
  "1939": " arri",
  "1940": "aughty",
  "1941": " teach",
  "1942": "bow",
  "1943": "ract",
  "1944": " elephant",
  "1945": " naughty",
  "1946": " dropped",
  "1947": " shap",
  "1948": "ier",
  "1949": " coll",
  "1950": "sc",
  "1951": "emy",
  "1952": " teac",
  "1953": " woke",
  "1954": "ball",
  "1955": " pile",
  "1956": " hiding",
  "1957": " cour",
  "1958": "isa",
  "1959": " puppy",
  "1960": "erry",
  "1961": " min",
  "1962": " touc",
  "1963": "'ll",
  "1964": " seem",
  "1965": "llie",
  "1966": " twins",
  "1967": "ama",
  "1968": " lunch",
  "1969": " bow",
  "1970": " sack",
  "1971": " pers",
  "1972": " course",
  "1973": " Jen",
  "1974": " cheered",
  "1975": " shapes",
  "1976": " grew",
  "1977": "fused",
  "1978": " rope",
  "1979": " village",
  "1980": "irth",
  "1981": " juice",
  "1982": "irthday",
  "1983": "ipped",
  "1984": " rainbow",
  "1985": " spin",
  "1986": "OK",
  "1987": " shook",
  "1988": "Jack",
  "1989": " spoon",
  "1990": " bench",
  "1991": " street",
  "1992": " fence",
  "1993": " cute",
  "1994": " rob",
  "1995": " Fred",
  "1996": " nut",
  "1997": " cheese",
  "1998": " prob",
  "1999": " touched",
  "2000": "idge",
  "2001": "col",
  "2002": " joy",
  "2003": " Whiskers",
  "2004": " seed",
  "2005": " arrived",
  "2006": " war",
  "2007": " teacher",
  "2008": " corn",
  "2009": "Good",
  "2010": " able",
  "2011": " forever",
  "2012": " bell",
  "2013": " few",
  "2014": " carry",
  "2015": " most",
  "2016": " Blue",
  "2017": " plane",
  "2018": "lem",
  "2019": " eas",
  "2020": "lla",
  "2021": " sounds",
  "2022": " des",
  "2023": " problem",
  "2024": " spo",
  "2025": " birthday",
  "2026": " power",
  "2027": " inc",
  "2028": "umb",
  "2029": "br",
  "2030": " bugs",
  "2031": "ilk",
  "2032": " wonderful",
  "2033": " dolls",
  "2034": " busy",
  "2035": "eb",
  "2036": "irp",
  "2037": "ato",
  "2038": " wra",
  "2039": " Thank",
  "2040": " promise",
  "2041": " feels",
  "2042": "ian",
  "2043": "eter",
  "2044": " Emma",
  "2045": " bread",
  "2046": " robot",
  "2047": "Finally",
  "2048": " rec",
  "2049": " neck",
  "2050": " milk",
  "2051": " shy",
  "2052": "ountain",
  "2053": " kiss",
  "2054": "irt",
  "2055": " heart",
  "2056": " cave",
  "2057": " band",
  "2058": " pocket",
  "2059": "ub",
  "2060": " helpful",
  "2061": "gly",
  "2062": " believe",
  "2063": " slowly",
  "2064": " shake",
  "2065": "umpy",
  "2066": "eared",
  "2067": " patient",
  "2068": " pop",
  "2069": " ob",
  "2070": "arp",
  "2071": " live",
  "2072": " storm",
  "2073": " holding",
  "2074": " ugly",
  "2075": " towards",
  "2076": " upset",
  "2077": " turt",
  "2078": " shr",
  "2079": "adow",
  "2080": " cover",
  "2081": " kitten",
  "2082": " Remy",
  "2083": "ost",
  "2084": " sharp",
  "2085": " stories",
  "2086": " disapp",
  "2087": " suc",
  "2088": " honey",
  "2089": "ove",
  "2090": " Bella",
  "2091": "read",
  "2092": " noises",
  "2093": " Le",
  "2094": " cir",
  "2095": " balls",
  "2096": " spark",
  "2097": " dist",
  "2098": " gray",
  "2099": " dirt",
  "2100": " late",
  "2101": "oggy",
  "2102": " driver",
  "2103": " seat",
  "2104": " bucket",
  "2105": " meet",
  "2106": " young",
  "2107": " amazed",
  "2108": " turtle",
  "2109": "alm",
  "2110": " treats",
  "2111": " spid",
  "2112": " magical",
  "2113": "unt",
  "2114": "ator",
  "2115": " glow",
  "2116": " seek",
  "2117": " zoom",
  "2118": " sandw",
  "2119": " lem",
  "2120": "fortable",
  "2121": "umber",
  "2122": " trip",
  "2123": " mist",
  "2124": "ourn",
  "2125": " splas",
  "2126": " mark",
  "2127": " journ",
  "2128": " fold",
  "2129": " puzz",
  "2130": " mach",
  "2131": " part",
  "2132": " horse",
  "2133": "ling",
  "2134": " wild",
  "2135": " organ",
  "2136": " princess",
  "2137": "pping",
  "2138": "oose",
  "2139": " cookie",
  "2140": "Sure",
  "2141": "ens",
  "2142": " hugs",
  "2143": " Mark",
  "2144": " taking",
  "2145": "ung",
  "2146": " wheel",
  "2147": "epend",
  "2148": " cloth",
  "2149": " Lisa",
  "2150": " sug",
  "2151": " instead",
  "2152": " bubb",
  "2153": " string",
  "2154": " net",
  "2155": " drove",
  "2156": "iling",
  "2157": " rude",
  "2158": " huge",
  "2159": " Jim",
  "2160": " stars",
  "2161": " coin",
  "2162": " fighting",
  "2163": "Be",
  "2164": " spicy",
  "2165": " lucky",
  "2166": "Of",
  "2167": "Hey",
  "2168": " bone",
  "2169": " craw",
  "2170": " inv",
  "2171": "ors",
  "2172": " Grandma",
  "2173": "not",
  "2174": " ca",
  "2175": "pper",
  "2176": " forget",
  "2177": "up",
  "2178": " di",
  "2179": " sal",
  "2180": "aur",
  "2181": " Finally",
  "2182": " cannot",
  "2183": "\n \n ",
  "2184": " whistle",
  "2185": " card",
  "2186": " path",
  "2187": " sick",
  "2188": " cou",
  "2189": " wide",
  "2190": " spider",
  "2191": "Lila",
  "2192": " snowman",
  "2193": " foot",
  "2194": " songs",
  "2195": " life",
  "2196": "ize",
  "2197": " pillow",
  "2198": "ular",
  "2199": " Just",
  "2200": "Later",
  "2201": "est",
  "2202": " Ann",
  "2203": "ert",
  "2204": " fixed",
  "2205": " giant",
  "2206": "oph",
  "2207": "rill",
  "2208": " nod",
  "2209": " boss",
  "2210": " last",
  "2211": " comes",
  "2212": " joke",
  "2213": " moon",
  "2214": " taste",
  "2215": "den",
  "2216": " grumpy",
  "2217": " machine",
  "2218": " wave",
  "2219": " thin",
  "2220": " drive",
  "2221": " ash",
  "2222": " cart",
  "2223": " ser",
  "2224": " grab",
  "2225": " peace",
  "2226": "lower",
  "2227": " daddy",
  "2228": " Leo",
  "2229": " On",
  "2230": "ery",
  "2231": " sel",
  "2232": "erest",
  "2233": " shelf",
  "2234": " hidden",
  "2235": " suddenly",
  "2236": " wasn",
  "2237": " write",
  "2238": " landed",
  "2239": " confused",
  "2240": " ring",
  "2241": " change",
  "2242": " worm",
  "2243": "oop",
  "2244": " interest",
  "2245": " chased",
  "2246": " fruits",
  "2247": " sour",
  "2248": "ity",
  "2249": " myster",
  "2250": " bark",
  "2251": " rad",
  "2252": " smooth",
  "2253": " Come",
  "2254": " val",
  "2255": " adventures",
  "2256": " stepped",
  "2257": " oven",
  "2258": " fle",
  "2259": "ope",
  "2260": " takes",
  "2261": " missed",
  "2262": " selfish",
  "2263": "kin",
  "2264": " sheep",
  "2265": " messy",
  "2266": " across",
  "2267": "To",
  "2268": " ent",
  "2269": "to",
  "2270": " exp",
  "2271": " ce",
  "2272": " later",
  "2273": "elly",
  "2274": " N",
  "2275": "ife",
  "2276": " sticks",
  "2277": " tie",
  "2278": "St",
  "2279": " bought",
  "2280": "ever",
  "2281": " Luna",
  "2282": " step",
  "2283": " drew",
  "2284": " tea",
  "2285": "pect",
  "2286": " ban",
  "2287": "irpy",
  "2288": "box",
  "2289": "?\u201d",
  "2290": " wash",
  "2291": " lay",
  "2292": " pour",
  "2293": " jog",
  "2294": " beak",
  "2295": "ose",
  "2296": " grate",
  "2297": " ducks",
  "2298": " spe",
  "2299": " legs",
  "2300": "ugg",
  "2301": " fil",
  "2302": " Bu",
  "2303": " emp",
  "2304": "mer",
  "2305": " hope",
  "2306": " slid",
  "2307": " empty",
  "2308": " feather",
  "2309": " sleepy",
  "2310": " drum",
  "2311": "amed",
  "2312": "ars",
  "2313": "eth",
  "2314": " phone",
  "2315": " pan",
  "2316": " zoo",
  "2317": " grateful",
  "2318": " fing",
  "2319": "ions",
  "2320": " lemon",
  "2321": "let",
  "2322": " Cat",
  "2323": " Molly",
  "2324": " smelly",
  "2325": " clever",
  "2326": " imag",
  "2327": " interesting",
  "2328": " splash",
  "2329": " Jill",
  "2330": " chick",
  "2331": " save",
  "2332": " med",
  "2333": " calm",
  "2334": "Soon",
  "2335": " watching",
  "2336": "izzy",
  "2337": "izz",
  "2338": " plate",
  "2339": " ign",
  "2340": "yard",
  "2341": " clouds",
  "2342": " banan",
  "2343": " line",
  "2344": " faces",
  "2345": " ba",
  "2346": " act",
  "2347": " lift",
  "2348": " though",
  "2349": " wolf",
  "2350": " backyard",
  "2351": "wel",
  "2352": " dogs",
  "2353": " seemed",
  "2354": " spray",
  "2355": "Come",
  "2356": " prot",
  "2357": " whole",
  "2358": " mot",
  "2359": " fancy",
  "2360": " Daddy",
  "2361": " quest",
  "2362": " puzzle",
  "2363": " arms",
  "2364": " supp",
  "2365": " healthy",
  "2366": "ward",
  "2367": " finish",
  "2368": "erly",
  "2369": " along",
  "2370": "llo",
  "2371": " explain",
  "2372": " rocket",
  "2373": "dge",
  "2374": " easy",
  "2375": " jewel",
  "2376": "ont",
  "2377": " pract",
  "2378": " jelly",
  "2379": " Chirpy",
  "2380": " tid",
  "2381": " fake",
  "2382": " crayons",
  "2383": " wondered",
  "2384": " scar",
  "2385": " maybe",
  "2386": " ship",
  "2387": " nothing",
  "2388": "onest",
  "2389": " emb",
  "2390": "iger",
  "2391": " pool",
  "2392": " longer",
  "2393": " anyone",
  "2394": " Be",
  "2395": " Jerry",
  "2396": "ually",
  "2397": " front",
  "2398": " working",
  "2399": " gives",
  "2400": "irr",
  "2401": " pack",
  "2402": " such",
  "2403": " Bunny",
  "2404": "ocked",
  "2405": " bossy",
  "2406": "ment",
  "2407": " trouble",
  "2408": " smelled",
  "2409": " Doggy",
  "2410": " saved",
  "2411": " pin",
  "2412": " neigh",
  "2413": "rass",
  "2414": "arrass",
  "2415": "iting",
  "2416": " honest",
  "2417": " av",
  "2418": "arge",
  "2419": " embarrass",
  "2420": " van",
  "2421": " forgive",
  "2422": " tidy",
  "2423": " puts",
  "2424": "urse",
  "2425": " weak",
  "2426": "unk",
  "2427": " shirt",
  "2428": " With",
  "2429": " kick",
  "2430": " mind",
  "2431": " neighb",
  "2432": " Ollie",
  "2433": " plants",
  "2434": " Momo",
  "2435": " sol",
  "2436": " gently",
  "2437": "orrow",
  "2438": "ming",
  "2439": " cozy",
  "2440": " explor",
  "2441": " yog",
  "2442": " mistake",
  "2443": "sp",
  "2444": "oc",
  "2445": " pointed",
  "2446": "oomy",
  "2447": " lad",
  "2448": " af",
  "2449": " onto",
  "2450": "ork",
  "2451": " stood",
  "2452": " waiting",
  "2453": " jumping",
  "2454": " prince",
  "2455": " cross",
  "2456": " lock",
  "2457": " cheer",
  "2458": " queen",
  "2459": " Why",
  "2460": " Mary",
  "2461": " wing",
  "2462": "we",
  "2463": "ones",
  "2464": " large",
  "2465": " lovely",
  "2466": "ult",
  "2467": " sur",
  "2468": " ret",
  "2469": " deer",
  "2470": " chew",
  "2471": "And",
  "2472": " couch",
  "2473": " bal",
  "2474": " stret",
  "2475": "aughter",
  "2476": "era",
  "2477": " Their",
  "2478": " places",
  "2479": " My",
  "2480": " ladder",
  "2481": "oof",
  "2482": " return",
  "2483": "raid",
  "2484": " ants",
  "2485": " dish",
  "2486": " afraid",
  "2487": " cleaned",
  "2488": " tomorrow",
  "2489": " building",
  "2490": " sandwich",
  "2491": " person",
  "2492": "Sally",
  "2493": "ned",
  "2494": " pretended",
  "2495": " wip",
  "2496": " bounce",
  "2497": "gest",
  "2498": " match",
  "2499": " rich",
  "2500": "uce",
  "2501": " pizz",
  "2502": " gather",
  "2503": " search",
  "2504": " boring",
  "2505": "oman",
  "2506": " Somet",
  "2507": " hum",
  "2508": " teeth",
  "2509": "Kitty",
  "2510": " woman",
  "2511": "My",
  "2512": "aced",
  "2513": " scarf",
  "2514": " daughter",
  "2515": " goes",
  "2516": " Together",
  "2517": " law",
  "2518": " swimming",
  "2519": " stra",
  "2520": " furry",
  "2521": " splashed",
  "2522": " loves",
  "2523": " true",
  "2524": " pri",
  "2525": " screamed",
  "2526": " lazy",
  "2527": " gen",
  "2528": " answer",
  "2529": " eag",
  "2530": " ashamed",
  "2531": " number",
  "2532": " pizza",
  "2533": "aw",
  "2534": " appeared",
  "2535": " nearby",
  "2536": " fear",
  "2537": " powerful",
  "2538": " flag",
  "2539": " St",
  "2540": "vous",
  "2541": " hang",
  "2542": " clown",
  "2543": "ek",
  "2544": " chase",
  "2545": " motor",
  "2546": " wand",
  "2547": " rub",
  "2548": " TV",
  "2549": " success",
  "2550": " chocol",
  "2551": " If",
  "2552": " creative",
  "2553": " trust",
  "2554": " wearing",
  "2555": " noisy",
  "2556": " matter",
  "2557": "pa",
  "2558": " dig",
  "2559": " hello",
  "2560": " ner",
  "2561": " tool",
  "2562": " saf",
  "2563": " Bird",
  "2564": "ado",
  "2565": " nervous",
  "2566": "elp",
  "2567": " test",
  "2568": " smiling",
  "2569": " sold",
  "2570": "icked",
  "2571": "oppy",
  "2572": "osaur",
  "2573": "mb",
  "2574": " circle",
  "2575": " map",
  "2576": " drank",
  "2577": " tries",
  "2578": " class",
  "2579": " chocolate",
  "2580": " Please",
  "2581": " impress",
  "2582": " knee",
  "2583": " gener",
  "2584": " dinosaur",
  "2585": " polite",
  "2586": " mirr",
  "2587": " Bobby",
  "2588": " Tiny",
  "2589": " gold",
  "2590": " balloons",
  "2591": " rare",
  "2592": " protect",
  "2593": "Stop",
  "2594": " cand",
  "2595": " carried",
  "2596": " Go",
  "2597": " shadow",
  "2598": "ensive",
  "2599": " ap",
  "2600": " mirror",
  "2601": " Don",
  "2602": "ina",
  "2603": " gun",
  "2604": " bald",
  "2605": " reg",
  "2606": " expensive",
  "2607": "iff",
  "2608": " mysterious",
  "2609": " Sp",
  "2610": " pump",
  "2611": " note",
  "2612": " hero",
  "2613": " march",
  "2614": " har",
  "2615": " icy",
  "2616": "arl",
  "2617": " respect",
  "2618": " weird",
  "2619": " cri",
  "2620": " snee",
  "2621": " gate",
  "2622": " soap",
  "2623": "ute",
  "2624": "rag",
  "2625": "issors",
  "2626": " poor",
  "2627": " these",
  "2628": " towel",
  "2629": " whale",
  "2630": " feet",
  "2631": " tape",
  "2632": "itter",
  "2633": " dizzy",
  "2634": "ndpa",
  "2635": " generous",
  "2636": " pres",
  "2637": "Help",
  "2638": " Benny",
  "2639": " disco",
  "2640": "nic",
  "2641": "ventually",
  "2642": " sque",
  "2643": " picnic",
  "2644": " lead",
  "2645": " mic",
  "2646": " embarrassed",
  "2647": " journey",
  "2648": " sugar",
  "2649": "scape",
  "2650": "isp",
  "2651": " peaceful",
  "2652": " boot",
  "2653": " tent",
  "2654": " fat",
  "2655": " scissors",
  "2656": " Bear",
  "2657": " yelled",
  "2658": " tasted",
  "2659": "Tommy",
  "2660": " tick",
  "2661": " dancing",
  "2662": " mel",
  "2663": "ness",
  "2664": " brush",
  "2665": " clap",
  "2666": " glue",
  "2667": " hur",
  "2668": " rough",
  "2669": " bridge",
  "2670": "ote",
  "2671": " decor",
  "2672": " closet",
  "2673": " stir",
  "2674": " crown",
  "2675": "ual",
  "2676": "imp",
  "2677": " Sometimes",
  "2678": " print",
  "2679": "airs",
  "2680": "owed",
  "2681": " How",
  "2682": "ume",
  "2683": " cap",
  "2684": " lamp",
  "2685": " vase",
  "2686": " scare",
  "2687": "lebr",
  "2688": " relie",
  "2689": "any",
  "2690": "lves",
  "2691": " eld",
  "2692": " tele",
  "2693": " gigg",
  "2694": " celebr",
  "2695": " whisp",
  "2696": " log",
  "2697": " sco",
  "2698": " blow",
  "2699": " painted",
  "2700": " Ducky",
  "2701": " pay",
  "2702": "erries",
  "2703": " wis",
  "2704": " berries",
  "2705": " mixed",
  "2706": "rob",
  "2707": " spread",
  "2708": " cage",
  "2709": " wouldn",
  "2710": " bake",
  "2711": "getable",
  "2712": " mountain",
  "2713": " adm",
  "2714": " drawing",
  "2715": " become",
  "2716": " knocked",
  "2717": " famous",
  "2718": " vegetable",
  "2719": " norm",
  "2720": " bean",
  "2721": "asp",
  "2722": " kicked",
  "2723": "ustr",
  "2724": " shark",
  "2725": "ser",
  "2726": " incred",
  "2727": " lose",
  "2728": " normal",
  "2729": " wrap",
  "2730": "ced",
  "2731": " group",
  "2732": " glass",
  "2733": " thick",
  "2734": " 3",
  "2735": " fine",
  "2736": " ignor",
  "2737": " clock",
  "2738": " team",
  "2739": " elderly",
  "2740": " clear",
  "2741": " corner",
  "2742": " frustr",
  "2743": " mighty",
  "2744": "robe",
  "2745": " incredible",
  "2746": " cone",
  "2747": " Br",
  "2748": "Dad",
  "2749": "ighed",
  "2750": " moms",
  "2751": " balance",
  "2752": " sock",
  "2753": " jam",
  "2754": " space",
  "2755": "ragile",
  "2756": " fright",
  "2757": " roar",
  "2758": " branches",
  "2759": "port",
  "2760": " organized",
  "2761": " sword",
  "2762": "alous",
  "2763": " guess",
  "2764": " Mama",
  "2765": " fool",
  "2766": " feed",
  "2767": " sell",
  "2768": " Some",
  "2769": " horn",
  "2770": " which",
  "2771": " jealous",
  "2772": " present",
  "2773": " yarn",
  "2774": "ony",
  "2775": " burn",
  "2776": " fragile",
  "2777": " understood",
  "2778": " mis",
  "2779": " ter",
  "2780": " stubb",
  "2781": " frustrated",
  "2782": "Where",
  "2783": "ray",
  "2784": " hose",
  "2785": "cient",
  "2786": " spent",
  "2787": " shoe",
  "2788": " taught",
  "2789": " stubborn",
  "2790": " twist",
  "2791": " creature",
  "2792": " chest",
  "2793": " relieved",
  "2794": " spoiled",
  "2795": " ancient",
  "2796": " wake",
  "2797": "ique",
  "2798": " fier",
  "2799": " pray",
  "2800": " fierce",
  "2801": " eggs",
  "2802": " barn",
  "2803": " cab",
  "2804": " terri",
  "2805": " ord",
  "2806": " pumpkin",
  "2807": " comfortable",
  "2808": "orry",
  "2809": "ym",
  "2810": " measure",
  "2811": " frightened",
  "2812": " toug",
  "2813": " unique",
  "2814": " unus",
  "2815": " wagon",
  "2816": " breath",
  "2817": " goat",
  "2818": " foolish",
  "2819": " useful",
  "2820": " exploring",
  "2821": "dle",
  "2822": " straw",
  "2823": " dug",
  "2824": " unusual",
  "2825": " clay",
  "2826": " discover",
  "2827": " dead",
  "2828": " Pe",
  "2829": " tomato",
  "2830": " police",
  "2831": " finding",
  "2832": " wrote",
  "2833": " clum",
  "2834": " exam",
  "2835": "lace",
  "2836": " waves",
  "2837": " square",
  "2838": " hears",
  "2839": " cabin",
  "2840": " tells",
  "2841": " dull",
  "2842": " necklace",
  "2843": " clumsy",
  "2844": " tough",
  "2845": " searched",
  "2846": " bubbles",
  "2847": " nosy",
  "2848": "kn",
  "2849": "Together",
  "2850": " washed",
  "2851": " bathroom",
  "2852": " paws",
  "2853": "ond",
  "2854": "bby",
  "2855": "anged",
  "2856": "unn",
  "2857": " board",
  "2858": "known",
  "2859": "fic",
  "2860": " asking",
  "2861": " crazy",
  "2862": " thankful",
  "2863": " bitter",
  "2864": " sunf",
  "2865": "yal",
  "2866": "alk",
  "2867": " pir",
  "2868": " ind",
  "2869": "berry",
  "2870": " diffic",
  "2871": "cil",
  "2872": " rose",
  "2873": " swan",
  "2874": " unknown",
  "2875": " bloom",
  "2876": " Ella",
  "2877": " covered",
  "2878": " pencil",
  "2879": " add",
  "2880": " difficult",
  "2881": " finger",
  "2882": " ham",
  "2883": " hoop",
  "2884": " jet",
  "2885": " witch",
  "2886": " drop",
  "2887": "Me",
  "2888": " '",
  "2889": " gloomy",
  "2890": " chicken",
  "2891": "apped",
  "2892": " loyal",
  "2893": "als",
  "2894": "Here",
  "2895": "com",
  "2896": " wealthy",
  "2897": "light",
  "2898": " unl",
  "2899": " cats",
  "2900": " ending",
  "2901": " guit",
  "2902": "bled",
  "2903": "shine",
  "2904": " dove",
  "2905": " cher",
  "2906": " joined",
  "2907": " mov",
  "2908": " terrible",
  "2909": "anut",
  "2910": "iant",
  "2911": " yours",
  "2912": " salad",
  "2913": " U",
  "2914": " Rex",
  "2915": " Andy",
  "2916": " nuts",
  "2917": " rat",
  "2918": "ground",
  "2919": " tiger",
  "2920": " potato",
  "2921": " mask",
  "2922": "xible",
  "2923": "selves",
  "2924": " value",
  "2925": " changed",
  "2926": " moving",
  "2927": " exciting",
  "2928": "ormous",
  "2929": " Many",
  "2930": " body",
  "2931": " Tr",
  "2932": " toast",
  "2933": " record",
  "2934": " zip",
  "2935": "erp",
  "2936": " cheap",
  "2937": " disg",
  "2938": " guitar",
  "2939": "irsty",
  "2940": " knowing",
  "2941": " hairy",
  "2942": " enormous",
  "2943": " yourself",
  "2944": " adventur",
  "2945": " shoot",
  "2946": "Every",
  "2947": " bored",
  "2948": " pepper",
  "2949": " acorn",
  "2950": " remind",
  "2951": " Brown",
  "2952": "ory",
  "2953": "land",
  "2954": " smaller",
  "2955": " sunshine",
  "2956": " adventurous",
  "2957": " hats",
  "2958": " stuff",
  "2959": " solve",
  "2960": " flexible",
  "2961": " Jimmy",
  "2962": "rilliant",
  "2963": " cost",
  "2964": " knife",
  "2965": " perform",
  "2966": " snacks",
  "2967": " nods",
  "2968": " shore",
  "2969": " brilliant",
  "2970": " thirsty",
  "2971": " delicate",
  "2972": " frown",
  "2973": " disgust",
  "2974": " stri",
  "2975": " seeds",
  "2976": " collect",
  "2977": " counted",
  "2978": " asleep",
  "2979": " banana",
  "2980": " mailbox",
  "2981": "reen",
  "2982": "iness",
  "2983": " dough",
  "2984": " trick",
  "2985": " neighbor",
  "2986": "ungle",
  "2987": " heal",
  "2988": "live",
  "2989": "Who",
  "2990": " stage",
  "2991": "ident",
  "2992": " market",
  "2993": " cube",
  "2994": " jungle",
  "2995": " stat",
  "2996": " squee",
  "2997": "mbre",
  "2998": " explained",
  "2999": "ates",
  "3000": " umbre",
  "3001": " disgusting",
  "3002": "Jim",
  "3003": "fted",
  "3004": " lab",
  "3005": " jolly",
  "3006": " flash",
  "3007": "und",
  "3008": "pid",
  "3009": "inal",
  "3010": "ilt",
  "3011": " fridge",
  "3012": " crane",
  "3013": "corn",
  "3014": " rh",
  "3015": " suit",
  "3016": "iddle",
  "3017": " sunflower",
  "3018": "erpill",
  "3019": " caterpill",
  "3020": " times",
  "3021": " relax",
  "3022": " Al",
  "3023": " four",
  "3024": " shiver",
  "3025": " island",
  "3026": "iginal",
  "3027": " harm",
  "3028": "ict",
  "3029": "ying",
  "3030": " While",
  "3031": " stupid",
  "3032": " comb",
  "3033": " medic",
  "3034": " Instead",
  "3035": " goose",
  "3036": " cro",
  "3037": "edient",
  "3038": "If",
  "3039": " Will",
  "3040": " stove",
  "3041": "Are",
  "3042": "Mum",
  "3043": " independ",
  "3044": "most",
  "3045": " gem",
  "3046": " spring",
  "3047": " batter",
  "3048": " sighed",
  "3049": " vegetables",
  "3050": "pes",
  "3051": "How",
  "3052": " stones",
  "3053": " shine",
  "3054": " careless",
  "3055": " depend",
  "3056": " original",
  "3057": " medicine",
  "3058": " Your",
  "3059": " rug",
  "3060": " stamp",
  "3061": " gar",
  "3062": " cries",
  "3063": "Inside",
  "3064": " scr",
  "3065": "gu",
  "3066": " carrots",
  "3067": " sauce",
  "3068": " successful",
  "3069": " meal",
  "3070": " almost",
  "3071": " jeep",
  "3072": " obedient",
  "3073": " popcorn",
  "3074": " middle",
  "3075": " magn",
  "3076": " independent",
  "3077": " study",
  "3078": " fearful",
  "3079": "met",
  "3080": " jack",
  "3081": "inky",
  "3082": "Sorry",
  "3083": " Sammy",
  "3084": " escape",
  "3085": " caterpillar",
  "3086": " bedroom",
  "3087": " serious",
  "3088": " peanut",
  "3089": " eager",
  "3090": "aken",
  "3091": " gets",
  "3092": " parrot",
  "3093": " helmet",
  "3094": " statue",
  "3095": " pebb",
  "3096": " No",
  "3097": " fountain",
  "3098": " ang",
  "3099": " raven",
  "3100": " umbrella",
  "3101": " pasta",
  "3102": " compet",
  "3103": "There",
  "3104": " dest",
  "3105": " belonged",
  "3106": " jacket",
  "3107": " filthy",
  "3108": " design",
  "3109": " borrow",
  "3110": " cam",
  "3111": "erable",
  "3112": " houses",
  "3113": " prize",
  "3114": " brace",
  "3115": " hay",
  "3116": " standing",
  "3117": " miserable",
  "3118": " raced",
  "3119": " taken",
  "3120": "ages",
  "3121": " crayon",
  "3122": "io",
  "3123": " triang",
  "3124": " painting",
  "3125": " fork",
  "3126": " fig",
  "3127": " impressive",
  "3128": " choose",
  "3129": " tied",
  "3130": "iable",
  "3131": " spotted",
  "3132": " slipped",
  "3133": " lifted",
  "3134": "ours",
  "3135": " tank",
  "3136": " thoughtful",
  "3137": " dependable",
  "3138": " steal",
  "3139": " garage",
  "3140": "enny",
  "3141": " er",
  "3142": " mush",
  "3143": " built",
  "3144": "ipe",
  "3145": " mole",
  "3146": " scale",
  "3147": " crawled",
  "3148": " boats",
  "3149": " pian",
  "3150": " bottom",
  "3151": " pant",
  "3152": " hammer",
  "3153": " cheerful",
  "3154": "lph",
  "3155": " smoke",
  "3156": " using",
  "3157": " picks",
  "3158": " piano",
  "3159": " shows",
  "3160": " moder",
  "3161": "rn",
  "3162": "berries",
  "3163": " eng",
  "3164": " magnet",
  "3165": "dile",
  "3166": "codile",
  "3167": " hurts",
  "3168": " ref",
  "3169": "inary",
  "3170": " crack",
  "3171": " aunt",
  "3172": " melon",
  "3173": " waff",
  "3174": " modern",
  "3175": " dolph",
  "3176": "unnel",
  "3177": "pack",
  "3178": "cream",
  "3179": " tunnel",
  "3180": "oin",
  "3181": " arrow",
  "3182": " reliable",
  "3183": " hopping",
  "3184": " mushroom",
  "3185": "Timmy",
  "3186": " squash",
  "3187": " jug",
  "3188": " flute",
  "3189": " movie",
  "3190": " sink",
  "3191": " gum",
  "3192": " tax",
  "3193": " lean",
  "3194": " beet",
  "3195": "Their",
  "3196": "iv",
  "3197": " popular",
  "3198": "opter",
  "3199": "icopter",
  "3200": " cryst",
  "3201": " ones",
  "3202": " sil",
  "3203": " competit",
  "3204": "aser",
  "3205": " helicopter",
  "3206": " needs",
  "3207": "Molly",
  "3208": "ipop",
  "3209": "llipop",
  "3210": " press",
  "3211": " crocodile",
  "3212": " liz",
  "3213": " troubled",
  "3214": " pige",
  "3215": " playful",
  "3216": " tricks",
  "3217": " lollipop",
  "3218": " locked",
  "3219": " humble",
  "3220": " kissed",
  "3221": " taxi",
  "3222": "appy",
  "3223": " low",
  "3224": "amond",
  "3225": "comfortable",
  "3226": " rid",
  "3227": " uncomfortable",
  "3228": "atch",
  "3229": "host",
  "3230": " wander",
  "3231": " angel",
  "3232": "edy",
  "3233": "cles",
  "3234": " torn",
  "3235": " grace",
  "3236": " wrapped",
  "3237": " anx",
  "3238": " Sn",
  "3239": " muff",
  "3240": " diamond",
  "3241": " disappoin",
  "3242": " helps",
  "3243": " twig",
  "3244": " pants",
  "3245": "atter",
  "3246": " camera",
  "3247": "oto",
  "3248": " anxious",
  "3249": " ghost",
  "3250": " ruined",
  "3251": " tears",
  "3252": " fis",
  "3253": " Jenny",
  "3254": "cident",
  "3255": "ilty",
  "3256": "aff",
  "3257": " quar",
  "3258": " Even",
  "3259": " env",
  "3260": "opl",
  "3261": " belt",
  "3262": "eropl",
  "3263": " guilty",
  "3264": " bull",
  "3265": " aeropl",
  "3266": " helpless",
  "3267": " happiness",
  "3268": " lizard",
  "3269": " boys",
  "3270": "ext",
  "3271": "cut",
  "3272": " walks",
  "3273": " cere",
  "3274": "cean",
  "3275": " passed",
  "3276": " meant",
  "3277": " ocean",
  "3278": " fluffy",
  "3279": " wire",
  "3280": " nail",
  "3281": " bracelet",
  "3282": " deaf",
  "3283": "zed",
  "3284": " stretch",
  "3285": " cact",
  "3286": " candle",
  "3287": "tt",
  "3288": " mop",
  "3289": " beetle",
  "3290": "umpet",
  "3291": " harmless",
  "3292": " ordinary",
  "3293": " cop",
  "3294": " collar",
  "3295": " answered",
  "3296": " bees",
  "3297": " shape",
  "3298": " quarrel",
  "3299": " radio",
  "3300": " tire",
  "3301": " crystal",
  "3302": " flashlight",
  "3303": " trumpet",
  "3304": " harder",
  "3305": " engine",
  "3306": " poured",
  "3307": " persist",
  "3308": " tooth",
  "3309": "Mama",
  "3310": " hunt",
  "3311": " tag",
  "3312": " invited",
  "3313": " cereal",
  "3314": " comput",
  "3315": " charm",
  "3316": " spill",
  "3317": " melt",
  "3318": " office",
  "3319": "coa",
  "3320": " lit",
  "3321": " scoot",
  "3322": " comet",
  "3323": " triangle",
  "3324": " yogurt",
  "3325": " rep",
  "3326": "ief",
  "3327": "ube",
  "3328": " mug",
  "3329": " spend",
  "3330": " compass",
  "3331": " accident",
  "3332": " shade",
  "3333": "hett",
  "3334": " disappointed",
  "3335": "aghett",
  "3336": "aghetti",
  "3337": " licked",
  "3338": " cactus",
  "3339": " pale",
  "3340": " figure",
  "3341": " regular",
  "3342": " cush",
  "3343": " avoc",
  "3344": " giving",
  "3345": " pro",
  "3346": " sheet",
  "3347": "aze",
  "3348": "ellig",
  "3349": " whispered",
  "3350": "uth",
  "3351": " create",
  "3352": " barber",
  "3353": " intellig",
  "3354": " rode",
  "3355": " roof",
  "3356": " pipe",
  "3357": "Jane",
  "3358": " vi",
  "3359": " load",
  "3360": " thread",
  "3361": " libr",
  "3362": "ither",
  "3363": "ccol",
  "3364": " gifted",
  "3365": "ccoli",
  "3366": "azz",
  "3367": " practiced",
  "3368": " pow",
  "3369": " delight",
  "3370": " bicy",
  "3371": " dust",
  "3372": "asses",
  "3373": " harsh",
  "3374": " True",
  "3375": "urkey",
  "3376": " compassion",
  "3377": " spaghetti",
  "3378": " sailed",
  "3379": "ubby",
  "3380": " forward",
  "3381": " persistent",
  "3382": " speed",
  "3383": " cocoa",
  "3384": " mitten",
  "3385": " envel",
  "3386": " questions",
  "3387": " coo",
  "3388": " feathers",
  "3389": " computer",
  "3390": "hip",
  "3391": " glove",
  "3392": "ging",
  "3393": " rice",
  "3394": " stream",
  "3395": "Bobo",
  "3396": " shrimp",
  "3397": " desk",
  "3398": " inse",
  "3399": " charming",
  "3400": " pigeon",
  "3401": " carp",
  "3402": " turkey",
  "3403": " ears",
  "3404": "lcan",
  "3405": " envious",
  "3406": " stronger",
  "3407": " raft",
  "3408": " knot",
  "3409": "omes",
  "3410": " coins",
  "3411": " tap",
  "3412": "weet",
  "3413": "lcano",
  "3414": " trap",
  "3415": " carpet",
  "3416": " wheat",
  "3417": "umbers",
  "3418": " restless",
  "3419": " trunk",
  "3420": " aeroplane",
  "3421": " intelligent",
  "3422": " chubby",
  "3423": " boxes",
  "3424": " tube",
  "3425": " spun",
  "3426": " dreams",
  "3427": " friendship",
  "3428": "olin",
  "3429": "ulif",
  "3430": " half",
  "3431": " loop",
  "3432": " broccoli",
  "3433": " crawl",
  "3434": " deliver",
  "3435": "anger",
  "3436": " onion",
  "3437": " acce",
  "3438": " vide",
  "3439": " volcano",
  "3440": " Jake",
  "3441": " track",
  "3442": " sle",
  "3443": " bri",
  "3444": " vine",
  "3445": " caulif",
  "3446": "ye",
  "3447": "essie",
  "3448": "cycle",
  "3449": " ticket",
  "3450": " thief",
  "3451": " louder",
  "3452": " insect",
  "3453": " numbers",
  "3454": "asing",
  "3455": "ital",
  "3456": " yaw",
  "3457": " sleeping",
  "3458": " haircut",
  "3459": " mill",
  "3460": " alert",
  "3461": " eventually",
  "3462": " excite",
  "3463": " pebble",
  "3464": " hosp",
  "3465": " attract",
  "3466": " planet",
  "3467": " destro",
  "3468": " Today",
  "3469": "ulu",
  "3470": " eraser",
  "3471": " univer",
  "3472": " hospital",
  "3473": " returned",
  "3474": "isted",
  "3475": " happening",
  "3476": " graceful",
  "3477": "ache",
  "3478": " decide",
  "3479": " Emily",
  "3480": " OK",
  "3481": "rework",
  "3482": " learning",
  "3483": " screen",
  "3484": " nicely",
  "3485": " leop",
  "3486": " poem",
  "3487": " cauliflower",
  "3488": " competitive",
  "3489": " celebrate",
  "3490": " curt",
  "3491": " soldier",
  "3492": " peach",
  "3493": "atient",
  "3494": " attractive",
  "3495": " saus",
  "3496": " parade",
  "3497": " violin",
  "3498": " curtain",
  "3499": " dolphin",
  "3500": " base",
  "3501": " ways",
  "3502": "ats",
  "3503": "Go",
  "3504": " travel",
  "3505": "ten",
  "3506": " rod",
  "3507": " ignorant",
  "3508": " scatter",
  "3509": "ulb",
  "3510": " compassionate",
  "3511": " yach",
  "3512": " wheels",
  "3513": " deter",
  "3514": " barrel",
  "3515": " lying",
  "3516": " bubble",
  "3517": " envelope",
  "3518": " firework",
  "3519": " sort",
  "3520": " question",
  "3521": " rag",
  "3522": "zzy",
  "3523": " Pipp",
  "3524": " bicycle",
  "3525": " determ",
  "3526": " scooter",
  "3527": " thu",
  "3528": "elery",
  "3529": " leopard",
  "3530": " tem",
  "3531": " judge",
  "3532": " needle",
  "3533": " bulb",
  "3534": " Fr",
  "3535": " yacht",
  "3536": " cricket",
  "3537": " pony",
  "3538": " homes",
  "3539": " order",
  "3540": "tern",
  "3541": " ador",
  "3542": " hook",
  "3543": " truth",
  "3544": "igator",
  "3545": "ete",
  "3546": "dom",
  "3547": " rubbed",
  "3548": " uncle",
  "3549": " bushes",
  "3550": "Sarah",
  "3551": " spell",
  "3552": " cushion",
  "3553": " grown",
  "3554": " cooked",
  "3555": " chalk",
  "3556": " adorable",
  "3557": " soar",
  "3558": " skin",
  "3559": " celery",
  "3560": " themselves",
  "3561": " impatient",
  "3562": " purse",
  "3563": " tray",
  "3564": " shells",
  "3565": " pengu",
  "3566": " prun",
  "3567": " sniff",
  "3568": " walls",
  "3569": " seal",
  "3570": " lively",
  "3571": " alligator",
  "3572": " case",
  "3573": " distant",
  "3574": " radish",
  "3575": " motorcycle",
  "3576": " saying",
  "3577": " speak",
  "3578": " meat",
  "3579": " send",
  "3580": " spinning",
  "3581": " forth",
  "3582": "illa",
  "3583": " enth",
  "3584": " counting",
  "3585": "ebra",
  "3586": " chain",
  "3587": " bounced",
  "3588": " ed",
  "3589": " cleaning",
  "3590": " film",
  "3591": " slept",
  "3592": "ebook",
  "3593": " notebook",
  "3594": " pit",
  "3595": "usia",
  "3596": " surf",
  "3597": " marry",
  "3598": " enthusia",
  "3599": " wallet",
  "3600": " metal",
  "3601": " week",
  "3602": "urb",
  "3603": " bin",
  "3604": " wiped",
  "3605": "ision",
  "3606": " skip",
  "3607": " avocado",
  "3608": "chair",
  "3609": " biggest",
  "3610": " destroy",
  "3611": " behave",
  "3612": " impro",
  "3613": "vator",
  "3614": " Sh",
  "3615": " steak",
  "3616": " bandage",
  "3617": " laughs",
  "3618": " post",
  "3619": " pattern",
  "3620": " Buzz",
  "3621": " elevator",
  "3622": "usie",
  "3623": " shut",
  "3624": " dive",
  "3625": " skipped",
  "3626": " unlock",
  "3627": " diary",
  "3628": "dest",
  "3629": "ject",
  "3630": " zebra",
  "3631": "ating",
  "3632": "aged",
  "3633": " armchair",
  "3634": "rage",
  "3635": " bags",
  "3636": " oy",
  "3637": " disturb",
  "3638": " pole",
  "3639": " club",
  "3640": " showing",
  "3641": " gathered",
  "3642": " nurse",
  "3643": " earth",
  "3644": "bul",
  "3645": " enc",
  "3646": " stranger",
  "3647": " sweater",
  "3648": " jellyfish",
  "3649": " temp",
  "3650": " skull",
  "3651": " screw",
  "3652": " mixer",
  "3653": " Poppy",
  "3654": " compl",
  "3655": "Give",
  "3656": " bump",
  "3657": " father",
  "3658": " lime",
  "3659": "bulance",
  "3660": "nam",
  "3661": " ambulance",
  "3662": "Gra",
  "3663": " journal",
  "3664": "ito",
  "3665": " loudly",
  "3666": " folder",
  "3667": " Lulu",
  "3668": " Peter",
  "3669": " shield",
  "3670": " library",
  "3671": " Bet",
  "3672": " buttons",
  "3673": " trucks",
  "3674": " ink",
  "3675": " playground",
  "3676": " lights",
  "3677": " city",
  "3678": " tummy",
  "3679": " pointing",
  "3680": " decorate",
  "3681": "irit",
  "3682": "quito",
  "3683": " station",
  "3684": " Polly",
  "3685": " prep",
  "3686": " falls",
  "3687": "Billy",
  "3688": " Fo",
  "3689": " fu",
  "3690": " Birdy",
  "3691": "ention",
  "3692": "nger",
  "3693": "lies",
  "3694": " herb",
  "3695": " mos",
  "3696": "nament",
  "3697": " ornament",
  "3698": " guard",
  "3699": " modest",
  "3700": " knows",
  "3701": " cord",
  "3702": "oby",
  "3703": " marble",
  "3704": " polish",
  "3705": " mosquito",
  "3706": "umbled",
  "3707": " attic",
  "3708": " salt",
  "3709": "ctop",
  "3710": " whenever",
  "3711": " vest",
  "3712": " yet",
  "3713": " resc",
  "3714": " ple",
  "3715": " disappeared",
  "3716": "ceed",
  "3717": " strawberry",
  "3718": " once",
  "3719": " Mum",
  "3720": " brothers",
  "3721": " kay",
  "3722": " itch",
  "3723": " pirate",
  "3724": " split",
  "3725": " football",
  "3726": "kele",
  "3727": " aut",
  "3728": "keleton",
  "3729": " hipp",
  "3730": "uring",
  "3731": " led",
  "3732": "ctopus",
  "3733": " driving",
  "3734": " support",
  "3735": " calling",
  "3736": " cable",
  "3737": " cupboard",
  "3738": "aky",
  "3739": " wishes",
  "3740": " complet",
  "3741": "ushed",
  "3742": " tripped",
  "3743": " root",
  "3744": " kayak",
  "3745": "obile",
  "3746": " octopus",
  "3747": " added",
  "3748": " edge",
  "3749": "stic",
  "3750": " mild",
  "3751": " determined",
  "3752": " succeed",
  "3753": " reading",
  "3754": "omobile",
  "3755": " coal",
  "3756": "?\".",
  "3757": "Well",
  "3758": "gl",
  "3759": "utes",
  "3760": "par",
  "3761": " suggest",
  "3762": " stack",
  "3763": " thunder",
  "3764": " kindness",
  "3765": " automobile",
  "3766": " enthusiastic",
  "3767": " sneeze",
  "3768": " complain",
  "3769": " yoga",
  "3770": " cartoon",
  "3771": " growl",
  "3772": " Little",
  "3773": " meadow",
  "3774": "htub",
  "3775": " drawer",
  "3776": " flea",
  "3777": "la",
  "3778": " ribb",
  "3779": " bathtub",
  "3780": " means",
  "3781": " hall",
  "3782": "ophone",
  "3783": " skeleton",
  "3784": " golf",
  "3785": " veil",
  "3786": " math",
  "3787": " flame",
  "3788": " poke",
  "3789": " hunter",
  "3790": " gor",
  "3791": " chess",
  "3792": " cups",
  "3793": " video",
  "3794": " matt",
  "3795": " glowing",
  "3796": " troph",
  "3797": " oyster",
  "3798": " itself",
  "3799": " spear",
  "3800": "work",
  "3801": " penny",
  "3802": " drawings",
  "3803": " switch",
  "3804": " hippo",
  "3805": " repair",
  "3806": "glasses",
  "3807": " sunglasses",
  "3808": " teleph",
  "3809": " costume",
  "3810": " zipp",
  "3811": " dess",
  "3812": ",\u201d",
  "3813": " pun",
  "3814": " repe",
  "3815": " arg",
  "3816": " pastry",
  "3817": " muffin",
  "3818": " minutes",
  "3819": " rolling",
  "3820": " makeup",
  "3821": "iron",
  "3822": " waffle",
  "3823": " packed",
  "3824": "ric",
  "3825": "case",
  "3826": " maze",
  "3827": " People",
  "3828": " handle",
  "3829": " pear",
  "3830": " telephone",
  "3831": " gear",
  "3832": "ait",
  "3833": " pine",
  "3834": " hedge",
  "3835": " package",
  "3836": " mattress",
  "3837": "aving",
  "3838": " Miss",
  "3839": " shocked",
  "3840": " powder",
  "3841": "ines",
  "3842": " trophy",
  "3843": " knight",
  "3844": " cob",
  "3845": " missile",
  "3846": " managed",
  "3847": " frame",
  "3848": " encou",
  "3849": " separ",
  "3850": " ok",
  "3851": " wife",
  "3852": " rot",
  "3853": " stairs",
  "3854": "web",
  "3855": "urch",
  "3856": " camp",
  "3857": " magaz",
  "3858": "rophone",
  "3859": " grapes",
  "3860": " strugg",
  "3861": " colour",
  "3862": "time",
  "3863": "head",
  "3864": " file",
  "3865": " Tina",
  "3866": "Bye",
  "3867": "old",
  "3868": " basketball",
  "3869": "per",
  "3870": "Re",
  "3871": "Jimmy",
  "3872": " cobweb",
  "3873": " Tweet",
  "3874": "See",
  "3875": " perm",
  "3876": " Dan",
  "3877": " wool",
  "3878": "esday",
  "3879": " eye",
  "3880": " microphone",
  "3881": " leash",
  "3882": " gasp",
  "3883": "iew",
  "3884": " weep",
  "3885": "keep",
  "3886": " barking",
  "3887": "ature",
  "3888": " safely",
  "3889": " tear",
  "3890": " view",
  "3891": " slides",
  "3892": "ffe",
  "3893": " steps",
  "3894": " spirit",
  "3895": "istol",
  "3896": "ffee",
  "3897": " staff",
  "3898": " bananas",
  "3899": " task",
  "3900": " giggled",
  "3901": " vend",
  "3902": " hoc",
  "3903": " those",
  "3904": " hockey",
  "3905": " gorilla",
  "3906": " cooler",
  "3907": "Jill",
  "3908": " Rose",
  "3909": "was",
  "3910": " early",
  "3911": " marched",
  "3912": "cing",
  "3913": " mint",
  "3914": "rosc",
  "3915": " Look",
  "3916": "washer",
  "3917": " hotel",
  "3918": " flour",
  "3919": " photo",
  "3920": " sailor",
  "3921": " dessert",
  "3922": "hic",
  "3923": " church",
  "3924": "ilot",
  "3925": " Pete",
  "3926": "roscope",
  "3927": " often",
  "3928": " medal",
  "3929": " vehic",
  "3930": " cooking",
  "3931": "otter",
  "3932": " remain",
  "3933": " five",
  "3934": " otter",
  "3935": " grandpa",
  "3936": "chor",
  "3937": " ten",
  "3938": " either",
  "3939": " sausage",
  "3940": " tools",
  "3941": " fireman",
  "3942": " baseball",
  "3943": " pretending",
  "3944": " pistol",
  "3945": " dishwasher",
  "3946": " rever",
  "3947": " organize",
  "3948": " knock",
  "3949": " vendor",
  "3950": " pee",
  "3951": " sight",
  "3952": " temple",
  "3953": " battery",
  "3954": " grill",
  "3955": " thinking",
  "3956": " opens",
  "3957": " ow",
  "3958": " iron",
  "3959": " realised",
  "3960": " sandbox",
  "3961": " oil",
  "3962": " sne",
  "3963": " patch",
  "3964": " laser",
  "3965": " hours",
  "3966": " rise",
  "3967": " whip",
  "3968": " Give",
  "3969": "ctory",
  "3970": "'d",
  "3971": " anchor",
  "3972": " trash",
  "3973": "ense",
  "3974": " short",
  "3975": "ney",
  "3976": " rhin",
  "3977": " Betty",
  "3978": " factory",
  "3979": "seum",
  "3980": " may",
  "3981": "ately",
  "3982": " ward",
  "3983": " cardboard",
  "3984": " lotion",
  "3985": "ugged",
  "3986": " cell",
  "3987": " valu",
  "3988": " message",
  "3989": " museum",
  "3990": "apers",
  "3991": "Al",
  "3992": " ur",
  "3993": "ination",
  "3994": " wardrobe",
  "3995": "ucet",
  "3996": " hanging",
  "3997": " Zoom",
  "3998": "ailable",
  "3999": " Sunny",
  "4000": " hive",
  "4001": " towers",
  "4002": " blackboard",
  "4003": "eer",
  "4004": "keeper",
  "4005": " excitement",
  "4006": " mem",
  "4007": "Fluffy",
  "4008": " pilot",
  "4009": " coffee",
  "4010": "ready",
  "4011": " penguin",
  "4012": " napkin",
  "4013": " quit",
  "4014": "loo",
  "4015": " check",
  "4016": " cane",
  "4017": "ron",
  "4018": " reward",
  "4019": " Pippin",
  "4020": " picking",
  "4021": " passport",
  "4022": " Snow",
  "4023": "place",
  "4024": " faucet",
  "4025": " ig",
  "4026": " Rob",
  "4027": "azor",
  "4028": " stumbled",
  "4029": " dreamed",
  "4030": " Bessie",
  "4031": " igloo",
  "4032": "aroo",
  "4033": " juicy",
  "4034": "angaroo",
  "4035": "play",
  "4036": " freez",
  "4037": " allowed",
  "4038": " holds",
  "4039": " sett",
  "4040": " already",
  "4041": " available",
  "4042": " bathe",
  "4043": " tornado",
  "4044": "imney",
  "4045": " fingers",
  "4046": "htray",
  "4047": " hanger",
  "4048": " size",
  "4049": " newsp",
  "4050": " fisher",
  "4051": " laund",
  "4052": " lend",
  "4053": " chimney",
  "4054": " laundry",
  "4055": " oak",
  "4056": " kangaroo",
  "4057": " men",
  "4058": " Everywhere",
  "4059": " telling",
  "4060": "Em",
  "4061": " novel",
  "4062": "body",
  "4063": " mummy",
  "4064": " mule",
  "4065": " notice",
  "4066": " cherries",
  "4067": " practice",
  "4068": " pal",
  "4069": " spilled",
  "4070": " reind",
  "4071": " enjoying",
  "4072": " complete",
  "4073": "arian",
  "4074": " microscope",
  "4075": "ampoo",
  "4076": " fireplace",
  "4077": " gain",
  "4078": " imagine",
  "4079": "ocer",
  "4080": " sub",
  "4081": "anda",
  "4082": " display",
  "4083": " fastest",
  "4084": " Zip",
  "4085": " magazine",
  "4086": " hurry",
  "4087": " cabinet",
  "4088": " shrink",
  "4089": " ashtray",
  "4090": " cows",
  "4091": "Wait",
  "4092": "Joe",
  "4093": " Spike",
  "4094": "gen",
  "4095": " improve",
  "4096": " palace",
  "4097": "aches",
  "4098": " reindeer",
  "4099": "oceros",
  "4100": " rake",
  "4101": " falling",
  "4102": " skirt",
  "4103": "ured",
  "4104": " discovered",
  "4105": " roared",
  "4106": " stared",
  "4107": "aid",
  "4108": " silver",
  "4109": " tub",
  "4110": "Is",
  "4111": " trail",
  "4112": " miner",
  "4113": "come",
  "4114": " fog",
  "4115": "iction",
  "4116": " fisherman",
  "4117": " bill",
  "4118": " ax",
  "4119": "stairs",
  "4120": " hut",
  "4121": "ilet",
  "4122": " happier",
  "4123": " oats",
  "4124": " taller",
  "4125": "ictionary",
  "4126": "vision",
  "4127": " object",
  "4128": " por",
  "4129": " valuable",
  "4130": " holes",
  "4131": " shampoo",
  "4132": " offered",
  "4133": " rhinoceros",
  "4134": " boots",
  "4135": " names",
  "4136": " blin",
  "4137": " toilet",
  "4138": " climbing",
  "4139": "vice",
  "4140": "Ow",
  "4141": " stretched",
  "4142": "iest",
  "4143": " zipper",
  "4144": " bathrobe",
  "4145": " listening",
  "4146": "alend",
  "4147": " television",
  "4148": " jokes",
  "4149": " sym",
  "4150": " Here",
  "4151": " jewelry",
  "4152": " axe",
  "4153": " stops",
  "4154": " calend",
  "4155": " jumps",
  "4156": " prov",
  "4157": " fuel",
  "4158": " Susie",
  "4159": "cu",
  "4160": " sparkly",
  "4161": " perfume",
  "4162": " bury",
  "4163": "Mummy",
  "4164": "bol",
  "4165": " pressed",
  "4166": " Kim",
  "4167": "lu",
  "4168": "fa",
  "4169": " rece",
  "4170": "reek",
  "4171": " Toby",
  "4172": " neat",
  "4173": " popped",
  "4174": " opera",
  "4175": " calendar",
  "4176": " creek",
  "4177": " snap",
  "4178": " gasped",
  "4179": " attach",
  "4180": " symbol",
  "4181": " tuna",
  "4182": " Mar",
  "4183": " papers",
  "4184": "Mr",
  "4185": " resist",
  "4186": " unpack",
  "4187": " dictionary",
  "4188": " subway",
  "4189": " letters",
  "4190": " chose",
  "4191": " freezer",
  "4192": " pinch",
  "4193": "zag",
  "4194": " spoke",
  "4195": " anyway",
  "4196": "affe",
  "4197": " super",
  "4198": " porch",
  "4199": " helper",
  "4200": " bikes",
  "4201": "arry",
  "4202": " lie",
  "4203": " bookcase",
  "4204": "iches",
  "4205": " tightly",
  "4206": " comfort",
  "4207": " shaking",
  "4208": "aurant",
  "4209": " son",
  "4210": " razor",
  "4211": " sandwiches",
  "4212": " Are",
  "4213": "igzag",
  "4214": " weigh",
  "4215": " against",
  "4216": " restaurant",
  "4217": " stickers",
  "4218": " newspaper",
  "4219": " blouse",
  "4220": " ped",
  "4221": " swinging",
  "4222": " vehicle",
  "4223": " disag",
  "4224": "ival",
  "4225": " swamp",
  "4226": " belongs",
  "4227": " nature",
  "4228": " squirrels",
  "4229": " butterflies",
  "4230": "del",
  "4231": " gym",
  "4232": " growing",
  "4233": " inclu",
  "4234": "omed",
  "4235": " stirred",
  "4236": " buckle",
  "4237": "xy",
  "4238": " beep",
  "4239": " billboard",
  "4240": " alarm",
  "4241": " mustache",
  "4242": " lip",
  "4243": " fest",
  "4244": "te",
  "4245": " lightning",
  "4246": " hung",
  "4247": " distance",
  "4248": "utor",
  "4249": "ogn",
  "4250": " cards",
  "4251": " agree",
  "4252": " obser",
  "4253": "Little",
  "4254": " ext",
  "4255": " tease",
  "4256": " recogn",
  "4257": "ik",
  "4258": " rubber",
  "4259": "fast",
  "4260": " hate",
  "4261": "ef",
  "4262": "Ouch",
  "4263": " doesn",
  "4264": " musician",
  "4265": " advice",
  "4266": " serve",
  "4267": " beef",
  "4268": " sweetie",
  "4269": "aspoon",
  "4270": " crib",
  "4271": " model",
  "4272": "lter",
  "4273": " sofa",
  "4274": " circles",
  "4275": " blueberries",
  "4276": " breakfast",
  "4277": " giraffe",
  "4278": " bookshe",
  "4279": "asis",
  "4280": " separate",
  "4281": " festival",
  "4282": " tutor",
  "4283": "stri",
  "4284": " gas",
  "4285": " shelter",
  "4286": " airport",
  "4287": " olive",
  "4288": " rail",
  "4289": " bookshelf",
  "4290": " frogs",
  "4291": " junk",
  "4292": " teaspoon",
  "4293": " riding",
  "4294": " reverse",
  "4295": " pleased",
  "4296": " drain",
  "4297": " Mrs",
  "4298": " wipe",
  "4299": " oasis",
  "4300": " soil",
  "4301": " ahead",
  "4302": " rescue",
  "4303": " leaving",
  "4304": " poked",
  "4305": " squeeze",
  "4306": "ummer",
  "4307": " painter",
  "4308": " Teddy",
  "4309": " chance",
  "4310": " knob",
  "4311": " lumber",
  "4312": " peeked",
  "4313": " trains",
  "4314": " extra",
  "4315": " slipp",
  "4316": " quiz",
  "4317": " refused",
  "4318": "res",
  "4319": " page",
  "4320": "rmomet",
  "4321": " point",
  "4322": " rules",
  "4323": " ins",
  "4324": " happens",
  "4325": " sounded",
  "4326": " Grandpa",
  "4327": " winter",
  "4328": " birdc",
  "4329": " dancer",
  "4330": " Dolly",
  "4331": " disappear",
  "4332": "rmometer",
  "4333": " waste",
  "4334": " weather",
  "4335": " birdcage",
  "4336": " lic",
  "4337": " theater",
  "4338": " carrying",
  "4339": "Daisy",
  "4340": " reef",
  "4341": " invite",
  "4342": "iform",
  "4343": " cliff",
  "4344": " trade",
  "4345": " swung",
  "4346": " ostri",
  "4347": " goal",
  "4348": " uniform",
  "4349": "ience",
  "4350": " lawn",
  "4351": " leaned",
  "4352": "ola",
  "4353": " Pandy",
  "4354": " accept",
  "4355": "angu",
  "4356": " admire",
  "4357": " accidentally",
  "4358": " pastel",
  "4359": " fort",
  "4360": "bbles",
  "4361": " stom",
  "4362": " langu",
  "4363": " suff",
  "4364": " bet",
  "4365": " twir",
  "4366": "riger",
  "4367": "rigerator",
  "4368": " panda",
  "4369": " blinked",
  "4370": "render",
  "4371": " starts",
  "4372": " peek",
  "4373": " refrigerator",
  "4374": " anywhere",
  "4375": "!\".",
  "4376": "na",
  "4377": " imagined",
  "4378": " dreaming",
  "4379": " remove",
  "4380": "night",
  "4381": " ceiling",
  "4382": " Lee",
  "4383": " Co",
  "4384": " grand",
  "4385": " classroom",
  "4386": " shower",
  "4387": "ium",
  "4388": " caring",
  "4389": " missing",
  "4390": "aked",
  "4391": " license",
  "4392": " stable",
  "4393": " monkeys",
  "4394": " thermometer",
  "4395": "astic",
  "4396": " warned",
  "4397": " Where",
  "4398": " summer",
  "4399": " brick",
  "4400": " above",
  "4401": " cudd",
  "4402": "ected",
  "4403": " problems",
  "4404": " label",
  "4405": "amber",
  "4406": " chasing",
  "4407": " lawy",
  "4408": " sent",
  "4409": "urnit",
  "4410": "urniture",
  "4411": " apron",
  "4412": " lid",
  "4413": "med",
  "4414": "uggage",
  "4415": " respectful",
  "4416": " furniture",
  "4417": " frowned",
  "4418": " zoomed",
  "4419": " pages",
  "4420": " prevent",
  "4421": " bent",
  "4422": " luggage",
  "4423": " mistakes",
  "4424": " sunset",
  "4425": " ostrich",
  "4426": "ison",
  "4427": " suggested",
  "4428": "ations",
  "4429": " windows",
  "4430": " jail",
  "4431": "low",
  "4432": " wine",
  "4433": " ribbon",
  "4434": " grape",
  "4435": " older",
  "4436": " shouts",
  "4437": " Cl",
  "4438": " wigg",
  "4439": "ucture",
  "4440": " structure",
  "4441": " spoil",
  "4442": "eor",
  "4443": " fixing",
  "4444": " lions",
  "4445": " chamber",
  "4446": " delay",
  "4447": " finds",
  "4448": " handed",
  "4449": "Did",
  "4450": " unite",
  "4451": " searching",
  "4452": " fought",
  "4453": " lawyer",
  "4454": " meeting",
  "4455": " brightly",
  "4456": " pair",
  "4457": " choice",
  "4458": " surprises",
  "4459": " Ellie",
  "4460": " art",
  "4461": " Un",
  "4462": "eterin",
  "4463": " favour",
  "4464": "eterinarian",
  "4465": "Ch",
  "4466": "adium",
  "4467": " stadium",
  "4468": " proudly",
  "4469": "iki",
  "4470": " veterinarian",
  "4471": "vet",
  "4472": " slip",
  "4473": "rod",
  "4474": " chairs",
  "4475": " Spe",
  "4476": " sadly",
  "4477": " Bow",
  "4478": " incre",
  "4479": " Carl",
  "4480": " puddles",
  "4481": " introd",
  "4482": " ranch",
  "4483": " berry",
  "4484": "veal",
  "4485": " Boun",
  "4486": " argue",
  "4487": " V",
  "4488": " admired",
  "4489": " cur",
  "4490": " favourite",
  "4491": "Your",
  "4492": " inf",
  "4493": " rac",
  "4494": " excitedly",
  "4495": " grabs",
  "4496": " steam",
  "4497": "mend",
  "4498": " human",
  "4499": "thank",
  "4500": "eorge",
  "4501": "sity",
  "4502": " Hel",
  "4503": " saving",
  "4504": " pushing",
  "4505": " Red",
  "4506": " reveal",
  "4507": " yield",
  "4508": "alley",
  "4509": " mall",
  "4510": "ommend",
  "4511": "olog",
  "4512": " reminded",
  "4513": " recommend",
  "4514": " leak",
  "4515": " harb",
  "4516": " appl",
  "4517": " surrender",
  "4518": " weap",
  "4519": "aul",
  "4520": "cuss",
  "4521": " putting",
  "4522": " regret",
  "4523": " valley",
  "4524": " evening",
  "4525": "elcome",
  "4526": " mineral",
  "4527": " forgave",
  "4528": " matches",
  "4529": " pup",
  "4530": " sneezed",
  "4531": " aw",
  "4532": " rushed",
  "4533": "ecause",
  "4534": " spade",
  "4535": " apolog",
  "4536": " plates",
  "4537": " discuss",
  "4538": " harbor",
  "4539": " prepare",
  "4540": " ignore",
  "4541": " Big",
  "4542": " country",
  "4543": " pulls",
  "4544": " language",
  "4545": " Jazz",
  "4546": " Buzzy",
  "4547": " supply",
  "4548": " float",
  "4549": " plastic",
  "4550": " sniffed",
  "4551": " replace",
  "4552": " meas",
  "4553": " Bill",
  "4554": " shovel",
  "4555": " raise",
  "4556": " fre",
  "4557": " Next",
  "4558": " cared",
  "4559": " socks",
  "4560": " strip",
  "4561": " lives",
  "4562": " doors",
  "4563": " mystery",
  "4564": " restore",
  "4565": " sudden",
  "4566": " sticker",
  "4567": " kinds",
  "4568": "ari",
  "4569": " slippery",
  "4570": "ero",
  "4571": " player",
  "4572": " Ow",
  "4573": " panic",
  "4574": "lex",
  "4575": "ricane",
  "4576": "iday",
  "4577": " hoping",
  "4578": " shone",
  "4579": "hero",
  "4580": " beg",
  "4581": " Mike",
  "4582": " Binky",
  "4583": " superhero",
  "4584": " delighted",
  "4585": " gro",
  "4586": "aud",
  "4587": "Yay",
  "4588": " chickens",
  "4589": "chan",
  "4590": " shoulder",
  "4591": " rained",
  "4592": " colourful",
  "4593": " breat",
  "4594": " claw",
  "4595": " Alice",
  "4596": "Yuck",
  "4597": " softly",
  "4598": " Bubbles",
  "4599": "rise",
  "4600": " port",
  "4601": " hol",
  "4602": "Grandma",
  "4603": " holiday",
  "4604": "icer",
  "4605": " barks",
  "4606": "ason",
  "4607": " throwing",
  "4608": " planes",
  "4609": "Mary",
  "4610": " bend",
  "4611": " Freddy",
  "4612": " shakes",
  "4613": " ended",
  "4614": " infant",
  "4615": " shivering",
  "4616": " kneel",
  "4617": " sunrise",
  "4618": " pushes",
  "4619": " fresh",
  "4620": " Olive",
  "4621": " thanks",
  "4622": " suffer",
  "4623": " points",
  "4624": "imed",
  "4625": "wards",
  "4626": " tip",
  "4627": " freeze",
  "4628": " Pat",
  "4629": " Speedy",
  "4630": " keeping",
  "4631": " giggle",
  "4632": " Would",
  "4633": " copper",
  "4634": " smells",
  "4635": " dear",
  "4636": "cast",
  "4637": " provide",
  "4638": " enter",
  "4639": "chanic",
  "4640": " dishes",
  "4641": " End",
  "4642": " applaud",
  "4643": "cond",
  "4644": " unh",
  "4645": " cherry",
  "4646": "Next",
  "4647": " hurricane",
  "4648": " heads",
  "4649": " menu",
  "4650": " mass",
  "4651": " second",
  "4652": " thumb",
  "4653": " brighter",
  "4654": " meowed",
  "4655": "ince",
  "4656": " sandcast",
  "4657": " mechanic",
  "4658": " wre",
  "4659": " weapon",
  "4660": " sprayed",
  "4661": " letting",
  "4662": " event",
  "4663": " laught",
  "4664": " x",
  "4665": " clapping",
  "4666": " laughter",
  "4667": " feelings",
  "4668": "Will",
  "4669": "icky",
  "4670": " splashing",
  "4671": "acked",
  "4672": " castles",
  "4673": " Or",
  "4674": "ement",
  "4675": " Fl",
  "4676": "cer",
  "4677": " navy",
  "4678": " universe",
  "4679": "apping",
  "4680": " score",
  "4681": " dem",
  "4682": " sticky",
  "4683": "ophie",
  "4684": " rooms",
  "4685": " flies",
  "4686": " row",
  "4687": "igi",
  "4688": " unhappy",
  "4689": " Dave",
  "4690": " greedy",
  "4691": " dare",
  "4692": " alive",
  "4693": " breaks",
  "4694": " ener",
  "4695": " courage",
  "4696": " invit",
  "4697": "Ready",
  "4698": " demand",
  "4699": " repeat",
  "4700": "Lisa",
  "4701": " trusted",
  "4702": " prune",
  "4703": " somewhere",
  "4704": "arlie",
  "4705": "bles",
  "4706": " wreck",
  "4707": " Y",
  "4708": " examine",
  "4709": " skill",
  "4710": " parts",
  "4711": "year",
  "4712": " eaten",
  "4713": "All",
  "4714": "oe",
  "4715": "erc",
  "4716": "enry",
  "4717": " mention",
  "4718": " raining",
  "4719": " Help",
  "4720": "Buddy",
  "4721": " throws",
  "4722": " jogged",
  "4723": "quest",
  "4724": " starting",
  "4725": " rush",
  "4726": " poison",
  "4727": " pirates",
  "4728": "heart",
  "4729": " content",
  "4730": " vac",
  "4731": "Emma",
  "4732": " Kiki",
  "4733": " sigh",
  "4734": " drops",
  "4735": " sport",
  "4736": " flapped",
  "4737": " chirp",
  "4738": "Qu",
  "4739": " sparkled",
  "4740": " Zoomy",
  "4741": " given",
  "4742": " streng",
  "4743": " steel",
  "4744": " stud",
  "4745": " bumped",
  "4746": "Ann",
  "4747": " yawned",
  "4748": " scold",
  "4749": " request",
  "4750": " myself",
  "4751": " shrugged",
  "4752": " punish",
  "4753": " strength",
  "4754": "Mark",
  "4755": " coats",
  "4756": " snugg",
  "4757": " equ",
  "4758": " university",
  "4759": " paid",
  "4760": " pigs",
  "4761": " Johnny",
  "4762": " scratch",
  "4763": " exerc",
  "4764": " tracks",
  "4765": " toe",
  "4766": " upstairs",
  "4767": " crossed",
  "4768": " prayed",
  "4769": " squeezed",
  "4770": " impressed",
  "4771": " flood",
  "4772": " Ru",
  "4773": " bouncing",
  "4774": " leather",
  "4775": " rabbits",
  "4776": "ges",
  "4777": "..",
  "4778": " warn",
  "4779": "Alice",
  "4780": " badly",
  "4781": " expect",
  "4782": " news",
  "4783": " tide",
  "4784": " Ted",
  "4785": " minute",
  "4786": " nation",
  "4787": " claws",
  "4788": " bears",
  "4789": " buzz",
  "4790": " Sm",
  "4791": " sweetheart",
  "4792": "yth",
  "4793": "Sh",
  "4794": " heat",
  "4795": "ythm",
  "4796": " observe",
  "4797": " hist",
  "4798": " strawberries",
  "4799": " vacation",
  "4800": " sandcastle",
  "4801": " explored",
  "4802": " settle",
  "4803": " yawn",
  "4804": " Lilly",
  "4805": " history",
  "4806": " Lola",
  "4807": "mare",
  "4808": " Mummy",
  "4809": "ially",
  "4810": "inking",
  "4811": " Sque",
  "4812": "Daddy",
  "4813": " horses",
  "4814": " believed",
  "4815": " Hoppy",
  "4816": " checked",
  "4817": " Mandy",
  "4818": " tour",
  "4819": " network",
  "4820": " cheek",
  "4821": " Under",
  "4822": " offer",
  "4823": " easily",
  "4824": " placed",
  "4825": "spec",
  "4826": " spots",
  "4827": " snowball",
  "4828": "ween",
  "4829": "men",
  "4830": " energy",
  "4831": " imagination",
  "4832": "otten",
  "4833": " Bee",
  "4834": " blueberry",
  "4835": " between",
  "4836": "specially",
  "4837": "izes",
  "4838": " waving",
  "4839": " Gigi",
  "4840": " daisy",
  "4841": "reeze",
  "4842": " vroom",
  "4843": "reat",
  "4844": " soak",
  "4845": " massage",
  "4846": " safari",
  "4847": " rhythm",
  "4848": " stomach",
  "4849": " baking",
  "4850": "quake",
  "4851": " insisted",
  "4852": " nightmare",
  "4853": " stair",
  "4854": " blowing",
  "4855": " entered",
  "4856": "Before",
  "4857": " beauty",
  "4858": " palm",
  "4859": " writing",
  "4860": " bother",
  "4861": " twisted",
  "4862": " scoop",
  "4863": " prunes",
  "4864": " brain",
  "4865": " ing",
  "4866": "ipment",
  "4867": " hills",
  "4868": " poppy",
  "4869": "noon",
  "4870": " afternoon",
  "4871": " especially",
  "4872": " equipment",
  "4873": "hest",
  "4874": " sir",
  "4875": " See",
  "4876": " pad",
  "4877": " calls",
  "4878": " Fox",
  "4879": " ingred",
  "4880": " earthquake",
  "4881": " ingredient",
  "4882": " burned",
  "4883": " ignored",
  "4884": " Snowy",
  "4885": " nobody",
  "4886": "mble",
  "4887": "apa",
  "4888": " sty",
  "4889": " tug",
  "4890": " sew",
  "4891": "isty",
  "4892": "xygen",
  "4893": " hearts",
  "4894": " lear",
  "4895": " learnt",
  "4896": " lemonade",
  "4897": " increase",
  "4898": "Jenny",
  "4899": "illie",
  "4900": " gaz",
  "4901": " backpack",
  "4902": " mailman",
  "4903": " pedal",
  "4904": " Sk",
  "4905": "Fred",
  "4906": " whistled",
  "4907": "ffic",
  "4908": " shopkeeper",
  "4909": " permit",
  "4910": " tremble",
  "4911": " moves",
  "4912": " yucky",
  "4913": "anges",
  "4914": " introduce",
  "4915": " crash",
  "4916": " lemons",
  "4917": " floated",
  "4918": " beans",
  "4919": "edn",
  "4920": "ednesday",
  "4921": "ittens",
  "4922": "Welcome",
  "4923": " planned",
  "4924": " strike",
  "4925": " traffic",
  "4926": " include",
  "4927": " racing",
  "4928": " slap",
  "4929": " Lucky",
  "4930": "resses",
  "4931": " wags",
  "4932": " wisdom",
  "4933": " pur",
  "4934": "laimed",
  "4935": " Finny",
  "4936": " George",
  "4937": " luck",
  "4938": " mama",
  "4939": " following",
  "4940": " price",
  "4941": "ecting",
  "4942": " pitch",
  "4943": " below",
  "4944": " Elly",
  "4945": " Have",
  "4946": "Le",
  "4947": " exclaimed",
  "4948": "house",
  "4949": " weight",
  "4950": " comf",
  "4951": " buried",
  "4952": " recognize",
  "4953": " follows",
  "4954": " ingredients",
  "4955": "tain",
  "4956": " furt",
  "4957": " marbles",
  "4958": " candles",
  "4959": "Mimi",
  "4960": " Alex",
  "4961": "riage",
  "4962": "unday",
  "4963": "emember",
  "4964": "eration",
  "4965": " Wednesday",
  "4966": " growled",
  "4967": " apart",
  "4968": "uct",
  "4969": " closely",
  "4970": " Su",
  "4971": " hopes",
  "4972": "ores",
  "4973": " folded",
  "4974": " conf",
  "4975": " teaching",
  "4976": " Who",
  "4977": " Finn",
  "4978": " heel",
  "4979": " Sunday",
  "4980": " encourage",
  "4981": " Paul",
  "4982": " zigzag",
  "4983": " Owl",
  "4984": " pulling",
  "4985": " digg",
  "4986": " bouncy",
  "4987": " further",
  "4988": " chewed",
  "4989": " digging",
  "4990": "With",
  "4991": "Woof",
  "4992": " winning",
  "4993": " dresses",
  "4994": " image",
  "4995": "rec",
  "4996": " shouting",
  "4997": "cery",
  "4998": " twisty",
  "4999": " grocery",
  "5000": " peanuts",
  "5001": " puzzles",
  "5002": "bbing",
  "5003": " Dog",
  "5004": " scrat",
  "5005": "look",
  "5006": " whisper",
  "5007": " Is",
  "5008": " chores",
  "5009": " spike",
  "5010": " cape",
  "5011": " Froggy",
  "5012": " acorns",
  "5013": " worms",
  "5014": " snail",
  "5015": "hood",
  "5016": " deeper",
  "5017": " urge",
  "5018": "ifi",
  "5019": " exper",
  "5020": " Tilly",
  "5021": " Whenever",
  "5022": " Squeaky",
  "5023": " Grace",
  "5024": " planted",
  "5025": " attention",
  "5026": "ecture",
  "5027": " exercise",
  "5028": " operation",
  "5029": " Danny",
  "5030": " creatures",
  "5031": " agre",
  "5032": " cub",
  "5033": " underground",
  "5034": " hon",
  "5035": " quite",
  "5036": " simp",
  "5037": "Everyone",
  "5038": " struggle",
  "5039": "oral",
  "5040": " Mittens",
  "5041": "ddy",
  "5042": " blood",
  "5043": " lecture",
  "5044": " hurting",
  "5045": " washing",
  "5046": " vanished",
  "5047": " gifts",
  "5048": " dressed",
  "5049": " solved",
  "5050": " licks",
  "5051": "ippy",
  "5052": " invitation",
  "5053": " Sharing",
  "5054": " snuggled",
  "5055": " ble",
  "5056": " marriage",
  "5057": "gie",
  "5058": " quietly",
  "5059": " warning",
  "5060": " jazz",
  "5061": " \n ",
  "5062": " breathe",
  "5063": "reci",
  "5064": " elephants",
  "5065": " fallen",
  "5066": " sizes",
  "5067": " landscape",
  "5068": " dried",
  "5069": "ories",
  "5070": " sprink",
  "5071": " neighbour",
  "5072": " mice",
  "5073": "uesday",
  "5074": " appreci",
  "5075": " Sophie",
  "5076": " Joey",
  "5077": " \u2013",
  "5078": " sailing",
  "5079": " eagerly",
  "5080": " Coco",
  "5081": " paused",
  "5082": " Penny",
  "5083": "ips",
  "5084": " counter",
  "5085": " Good",
  "5086": " Bounce",
  "5087": " worth",
  "5088": "looking",
  "5089": " Rock",
  "5090": " oxygen",
  "5091": " release",
  "5092": "Because",
  "5093": "Not",
  "5094": " shined",
  "5095": " reaches",
  "5096": "pted",
  "5097": " Zara",
  "5098": " balan",
  "5099": "isses",
  "5100": " oh",
  "5101": " kisses",
  "5102": " style",
  "5103": " glo",
  "5104": " bricks",
  "5105": " Tuesday",
  "5106": " plays",
  "5107": " ideas",
  "5108": "sed",
  "5109": " wob",
  "5110": " inst",
  "5111": " fireworks",
  "5112": "Bella",
  "5113": "ucked",
  "5114": "iggly",
  "5115": " seeing",
  "5116": " flap",
  "5117": "ops",
  "5118": "right",
  "5119": " accepted",
  "5120": " Pip",
  "5121": "Today",
  "5122": " blink",
  "5123": " tremb",
  "5124": "mm",
  "5125": " muddy",
  "5126": " Ros",
  "5127": "These",
  "5128": " memory",
  "5129": " married",
  "5130": " tomatoes",
  "5131": " exit",
  "5132": " fash",
  "5133": " wagging",
  "5134": " Charlie",
  "5135": " Annie",
  "5136": "Remy",
  "5137": " wandered",
  "5138": "unately",
  "5139": " gloves",
  "5140": "ipping",
  "5141": " captain",
  "5142": " Pinky",
  "5143": " resp",
  "5144": " receive",
  "5145": " during",
  "5146": " pillows",
  "5147": "raged",
  "5148": " Everything",
  "5149": "etch",
  "5150": " petals",
  "5151": " web",
  "5152": " watered",
  "5153": " si",
  "5154": " Eventually",
  "5155": "ived",
  "5156": " manage",
  "5157": " pinched",
  "5158": " brings",
  "5159": " cakes",
  "5160": " vanish",
  "5161": " fashion",
  "5162": " Bluey",
  "5163": " destroyed",
  "5164": " printer",
  "5165": " treasures",
  "5166": "nce",
  "5167": " allow",
  "5168": " hadn",
  "5169": "ups",
  "5170": " worse",
  "5171": " Fifi",
  "5172": "Surpr",
  "5173": "xu",
  "5174": " hits",
  "5175": " vel",
  "5176": " bur",
  "5177": " appear",
  "5178": " velvet",
  "5179": " Ro",
  "5180": " catching",
  "5181": " scattered",
  "5182": " disagree",
  "5183": "do",
  "5184": " sorts",
  "5185": " memories",
  "5186": " Papa",
  "5187": " hers",
  "5188": " scolded",
  "5189": " signs",
  "5190": " bones",
  "5191": " oranges",
  "5192": " pears",
  "5193": " seats",
  "5194": " rang",
  "5195": " snapped",
  "5196": " sits",
  "5197": "uxu",
  "5198": " raised",
  "5199": " gazed",
  "5200": "Bl",
  "5201": " Maria",
  "5202": " pies",
  "5203": " zipped",
  "5204": " shot",
  "5205": " prints",
  "5206": " sliding",
  "5207": " fro",
  "5208": " God",
  "5209": " easier",
  "5210": "ssible",
  "5211": " skills",
  "5212": " climbs",
  "5213": " twirled",
  "5214": "ccer",
  "5215": " blankets",
  "5216": " forgotten",
  "5217": " baked",
  "5218": "ester",
  "5219": " luxu",
  "5220": "Yum",
  "5221": "orted",
  "5222": "esterday",
  "5223": " golden",
  "5224": " difference",
  "5225": "ising",
  "5226": " kitty",
  "5227": " Tw",
  "5228": " cutting",
  "5229": "aggie",
  "5230": " nowhere",
  "5231": " crow",
  "5232": " season",
  "5233": "ah",
  "5234": " soccer",
  "5235": " Harry",
  "5236": " dared",
  "5237": " bites",
  "5238": " Henry",
  "5239": "anny",
  "5240": " lung",
  "5241": " celebrated",
  "5242": "choo",
  "5243": "chie",
  "5244": " straight",
  "5245": " unlocked",
  "5246": "sters",
  "5247": " sorting",
  "5248": " bleed",
  "5249": " collected",
  "5250": "aped",
  "5251": "ding",
  "5252": " welcomed",
  "5253": " visited",
  "5254": " spoons",
  "5255": " ours",
  "5256": " stitch",
  "5257": " jogging",
  "5258": "medi",
  "5259": "Surprise",
  "5260": " emer",
  "5261": "mediately",
  "5262": " tong",
  "5263": " isn",
  "5264": " Spark",
  "5265": " trave",
  "5266": " winner",
  "5267": "umble",
  "5268": " since",
  "5269": " ruin",
  "5270": " prett",
  "5271": "Ok",
  "5272": "Moral",
  "5273": " weeping",
  "5274": " attached",
  "5275": " Tony",
  "5276": " marching",
  "5277": " luxury",
  "5278": " simple",
  "5279": " shouldn",
  "5280": " Each",
  "5281": " guessed",
  "5282": " zero",
  "5283": " created",
  "5284": " stuffed",
  "5285": " pets",
  "5286": " waist",
  "5287": "ction",
  "5288": " famil",
  "5289": " urged",
  "5290": " selling",
  "5291": " bowed",
  "5292": " floating",
  "5293": "rr",
  "5294": " Smith",
  "5295": " King",
  "5296": " bye",
  "5297": " vict",
  "5298": " kingdom",
  "5299": " olives",
  "5300": " punished",
  "5301": " kicking",
  "5302": " Liz",
  "5303": " Wiggly",
  "5304": " Baby",
  "5305": "sit",
  "5306": " toes",
  "5307": " grant",
  "5308": " Rosie",
  "5309": " jewels",
  "5310": " muscles",
  "5311": " beds",
  "5312": " melted",
  "5313": "Goodbye",
  "5314": " grin",
  "5315": " slice",
  "5316": " understanding",
  "5317": " measured",
  "5318": " collection",
  "5319": " tore",
  "5320": " cras",
  "5321": "aker",
  "5322": " trapped",
  "5323": "omeday",
  "5324": "iers",
  "5325": " lined",
  "5326": "'ve",
  "5327": " acted",
  "5328": "fortunately",
  "5329": " encouraged",
  "5330": " Sandy",
  "5331": "va",
  "5332": " received",
  "5333": " waffles",
  "5334": " Before",
  "5335": " Wally",
  "5336": " west",
  "5337": "ents",
  "5338": " meow",
  "5339": " patterns",
  "5340": "rin",
  "5341": "ino",
  "5342": " brus",
  "5343": "eath",
  "5344": " mouths",
  "5345": "kins",
  "5346": " bang",
  "5347": " Kate",
  "5348": "ring",
  "5349": "Meow",
  "5350": " peaches",
  "5351": "une",
  "5352": " breeze",
  "5353": "aded",
  "5354": " printed",
  "5355": " soldiers",
  "5356": " someday",
  "5357": " potatoes",
  "5358": " pupil",
  "5359": "umes",
  "5360": " Millie",
  "5361": " drinks",
  "5362": " experience",
  "5363": " Tuna",
  "5364": " shed",
  "5365": " presents",
  "5366": " firef",
  "5367": " Ruby",
  "5368": " surround",
  "5369": " none",
  "5370": "osed",
  "5371": " voices",
  "5372": " drinking",
  "5373": "eep",
  "5374": "ishing",
  "5375": " Uncle",
  "5376": " relaxed",
  "5377": " victory",
  "5378": " breaking",
  "5379": "cus",
  "5380": "eve",
  "5381": " paints",
  "5382": " hurried",
  "5383": "ission",
  "5384": " tongue",
  "5385": " twink",
  "5386": " costumes",
  "5387": " flat",
  "5388": " mentioned",
  "5389": " teasing",
  "5390": " begged",
  "5391": " whistling",
  "5392": " fetch",
  "5393": " permission",
  "5394": " disagreed",
  "5395": " sip",
  "5396": " pearl",
  "5397": "akes",
  "5398": "vest",
  "5399": " stro",
  "5400": " These",
  "5401": " appro",
  "5402": " esc",
  "5403": " skipping",
  "5404": " fishing",
  "5405": " May",
  "5406": "Leo",
  "5407": " highest",
  "5408": " pra",
  "5409": " watches",
  "5410": " sorted",
  "5411": " ringing",
  "5412": " Bo",
  "5413": " tonight",
  "5414": "ship",
  "5415": " opin",
  "5416": " lets",
  "5417": "icing",
  "5418": " perfectly",
  "5419": " Qu",
  "5420": " shadows",
  "5421": " immediately",
  "5422": " herbs",
  "5423": " spit",
  "5424": " warmth",
  "5425": "ther",
  "5426": " remained",
  "5427": " Its",
  "5428": "walk",
  "5429": "Bobby",
  "5430": "irring",
  "5431": "Jen",
  "5432": " sneak",
  "5433": " lips",
  "5434": " six",
  "5435": " kneeled",
  "5436": " Che",
  "5437": "utter",
  "5438": "Blue",
  "5439": " contest",
  "5440": " sidewalk",
  "5441": " colours",
  "5442": " cartoons",
  "5443": "Ha",
  "5444": " stamps",
  "5445": " ago",
  "5446": " east",
  "5447": " Follow",
  "5448": " headed",
  "5449": " Toto",
  "5450": " Boo",
  "5451": "oved",
  "5452": " strang",
  "5453": "\",",
  "5454": " fed",
  "5455": " supposed",
  "5456": " ladyb",
  "5457": " crunch",
  "5458": " lick",
  "5459": " roots",
  "5460": " mixing",
  "5461": " works",
  "5462": " known",
  "5463": " emergen",
  "5464": " decorations",
  "5465": "Mandy",
  "5466": " melting",
  "5467": " Jul",
  "5468": " Ab",
  "5469": " rested",
  "5470": " Suzy",
  "5471": " lines",
  "5472": " instr",
  "5473": " lily",
  "5474": " laid",
  "5475": " Gr",
  "5476": " succeeded",
  "5477": " cones",
  "5478": " shock",
  "5479": " wiggle",
  "5480": "ety",
  "5481": " setting",
  "5482": "sing",
  "5483": " Slow",
  "5484": " studied",
  "5485": " strangers",
  "5486": " Rocky",
  "5487": "Really",
  "5488": " twigs",
  "5489": " theirs",
  "5490": " girls",
  "5491": " brid",
  "5492": " Dr",
  "5493": "boo",
  "5494": " screams",
  "5495": " lands",
  "5496": " ordered",
  "5497": "!\",",
  "5498": " stirring",
  "5499": " moments",
  "5500": " fields",
  "5501": " alright",
  "5502": "ded",
  "5503": " stealing",
  "5504": " rul",
  "5505": "Andy",
  "5506": "avid",
  "5507": " bravely",
  "5508": " Both",
  "5509": "!'",
  "5510": " mister",
  "5511": " invest",
  "5512": " scratched",
  "5513": " playtime",
  "5514": " ripped",
  "5515": " investig",
  "5516": " tucked",
  "5517": " resting",
  "5518": " burning",
  "5519": "ishes",
  "5520": " officer",
  "5521": " Clara",
  "5522": " Chicky",
  "5523": " bridges",
  "5524": "please",
  "5525": "Bird",
  "5526": "Sammy",
  "5527": "abies",
  "5528": " settled",
  "5529": " achie",
  "5530": " tex",
  "5531": " matched",
  "5532": " texture",
  "5533": "Happy",
  "5534": " turning",
  "5535": " waits",
  "5536": " Sky",
  "5537": "Peter",
  "5538": " trembling",
  "5539": "ored",
  "5540": " nails",
  "5541": "isten",
  "5542": " Someone",
  "5543": "atie",
  "5544": "ids",
  "5545": " muffins",
  "5546": " Pepper",
  "5547": " escaped",
  "5548": " investigate",
  "5549": " piles",
  "5550": " James",
  "5551": "osity",
  "5552": " ladybug",
  "5553": " broom",
  "5554": " sore",
  "5555": " appreciate",
  "5556": " admir",
  "5557": " babies",
  "5558": " silence",
  "5559": " threat",
  "5560": " sisters",
  "5561": " emergency",
  "5562": " area",
  "5563": " pupp",
  "5564": " keys",
  "5565": "ides",
  "5566": " dads",
  "5567": " answers",
  "5568": " chewing",
  "5569": " slapped",
  "5570": " served",
  "5571": " Hop",
  "5572": " importance",
  "5573": "Boo",
  "5574": " wiz",
  "5575": " safety",
  "5576": "izing",
  "5577": "Would",
  "5578": "Bu",
  "5579": " touching",
  "5580": " sparkle",
  "5581": " Later",
  "5582": "igail",
  "5583": " soared",
  "5584": " sings",
  "5585": " hen",
  "5586": "allen",
  "5587": "Ella",
  "5588": "antly",
  "5589": "bers",
  "5590": "Momo",
  "5591": " Dino",
  "5592": " challen",
  "5593": " amazement",
  "5594": " keeps",
  "5595": " hesit",
  "5596": " twin",
  "5597": "achel",
  "5598": " revealed",
  "5599": " dire",
  "5600": "anna",
  "5601": " item",
  "5602": " soaked",
  "5603": " writ",
  "5604": "zing",
  "5605": " foods",
  "5606": " rides",
  "5607": " dinosaurs",
  "5608": " recorded",
  "5609": " tickle",
  "5610": " inch",
  "5611": " Zigzag",
  "5612": " vet",
  "5613": " Me",
  "5614": " wizard",
  "5615": " trips",
  "5616": " glowed",
  "5617": " An",
  "5618": " Frog",
  "5619": "Mmm",
  "5620": " hi",
  "5621": " beamed",
  "5622": " quack",
  "5623": " curled",
  "5624": " wink",
  "5625": " hated",
  "5626": " shopping",
  "5627": " eats",
  "5628": "Eventually",
  "5629": " praised",
  "5630": " Bug",
  "5631": " wooden",
  "5632": " bringing",
  "5633": " studying",
  "5634": " mittens",
  "5635": " brushes",
  "5636": " guy",
  "5637": " gust",
  "5638": " spaceship",
  "5639": " crawling",
  "5640": " ruler",
  "5641": " Something",
  "5642": "Cat",
  "5643": " flav",
  "5644": " downstairs",
  "5645": " shooting",
  "5646": " napping",
  "5647": " tastes",
  "5648": " sprinkles",
  "5649": " marks",
  "5650": " cuddled",
  "5651": " dot",
  "5652": "plash",
  "5653": "hello",
  "5654": " fut",
  "5655": "ales",
  "5656": "aved",
  "5657": " future",
  "5658": " monsters",
  "5659": " measuring",
  "5660": " Happy",
  "5661": " collecting",
  "5662": "'.",
  "5663": " First",
  "5664": " families",
  "5665": " Mo",
  "5666": " Out",
  "5667": " thrill",
  "5668": " oat",
  "5669": "irts",
  "5670": " result",
  "5671": "Jake",
  "5672": " approached",
  "5673": " Rabbit",
  "5674": " crunchy",
  "5675": "act",
  "5676": "Un",
  "5677": " remem",
  "5678": " bleeding",
  "5679": " remembers",
  "5680": " nicer",
  "5681": " beat",
  "5682": " sneaky",
  "5683": " disturbed",
  "5684": " leader",
  "5685": " scaring",
  "5686": " peel",
  "5687": "hind",
  "5688": "Or",
  "5689": " Hope",
  "5690": " firemen",
  "5691": " Star",
  "5692": " neighborhood",
  "5693": " grey",
  "5694": " Not",
  "5695": " motion",
  "5696": " noon",
  "5697": " possible",
  "5698": "Emily",
  "5699": "Somet",
  "5700": " apologized",
  "5701": "ues",
  "5702": " weighed",
  "5703": " Did",
  "5704": " tickets",
  "5705": " naps",
  "5706": "Cl",
  "5707": " loose",
  "5708": " pride",
  "5709": " youth",
  "5710": " swims",
  "5711": "ped",
  "5712": " strings",
  "5713": " recognized",
  "5714": "elvet",
  "5715": " siren",
  "5716": "fied",
  "5717": " poking",
  "5718": "cious",
  "5719": "ha",
  "5720": " Ho",
  "5721": " wonders",
  "5722": " tricked",
  "5723": " gained",
  "5724": " crashed",
  "5725": " wanting",
  "5726": " obe",
  "5727": "unnies",
  "5728": " seesaw",
  "5729": " worker",
  "5730": "ls",
  "5731": " scooped",
  "5732": " draws",
  "5733": "oming",
  "5734": ".'",
  "5735": " zooming",
  "5736": " opinion",
  "5737": " yelling",
  "5738": " prepared",
  "5739": " poems",
  "5740": " grinned",
  "5741": " doggy",
  "5742": " acting",
  "5743": " Slowly",
  "5744": " awe",
  "5745": " Beep",
  "5746": " happiest",
  "5747": " chef",
  "5748": " sneaked",
  "5749": " respons",
  "5750": " eff",
  "5751": " Lizzy",
  "5752": " Always",
  "5753": " bunnies",
  "5754": " owned",
  "5755": "ena",
  "5756": " anytime",
  "5757": " struck",
  "5758": " pedals",
  "5759": " knelt",
  "5760": "oys",
  "5761": "Ollie",
  "5762": " secrets",
  "5763": " pause",
  "5764": " decorated",
  "5765": " horns",
  "5766": " agreement",
  "5767": " Squ",
  "5768": "ided",
  "5769": " frost",
  "5770": " obey",
  "5771": " tallest",
  "5772": "Remember",
  "5773": "riends",
  "5774": "ogo",
  "5775": " decides",
  "5776": " Stop",
  "5777": "Have",
  "5778": " Once",
  "5779": " behaved",
  "5780": " tugged",
  "5781": " sides",
  "5782": " woof",
  "5783": "zen",
  "5784": " slim",
  "5785": " sparkling",
  "5786": " goodnight",
  "5787": " keeper",
  "5788": " chirped",
  "5789": " precious",
  "5790": "mother",
  "5791": "lier",
  "5792": "Tr",
  "5793": "ien",
  "5794": " repeated",
  "5795": " snowballs",
  "5796": " claps",
  "5797": "ud",
  "5798": " contain",
  "5799": " Ray",
  "5800": "indy",
  "5801": "affes",
  "5802": "rs",
  "5803": " ourselves",
  "5804": "allow",
  "5805": " giraffes",
  "5806": " balancing",
  "5807": " kindly",
  "5808": " spending",
  "5809": " writes",
  "5810": "ppers",
  "5811": "ays",
  "5812": " Like",
  "5813": " frozen",
  "5814": "omas",
  "5815": "First",
  "5816": " prop",
  "5817": " hissed",
  "5818": " frosting",
  "5819": " effort",
  "5820": " buzzing",
  "5821": " Steve",
  "5822": "oh",
  "5823": " struggled",
  "5824": " Velvet",
  "5825": "iggy",
  "5826": " rele",
  "5827": " admiring",
  "5828": " sweeties",
  "5829": " slimy",
  "5830": " brushed",
  "5831": " bloomed",
  "5832": "Susie",
  "5833": " Am",
  "5834": " polished",
  "5835": " Zoe",
  "5836": "arth",
  "5837": "anted",
  "5838": " boo",
  "5839": " comfy",
  "5840": " staying",
  "5841": " rubbing",
  "5842": " rocking",
  "5843": "Ducky",
  "5844": " pockets",
  "5845": " thrilled",
  "5846": " beside",
  "5847": " Aunt",
  "5848": " comple",
  "5849": " Maggie",
  "5850": "Ah",
  "5851": "urry",
  "5852": " earlier",
  "5853": " eight",
  "5854": " machines",
  "5855": "isdom",
  "5856": " yesterday",
  "5857": " rust",
  "5858": " seems",
  "5859": " traveled",
  "5860": " Keep",
  "5861": "Sp",
  "5862": " folding",
  "5863": " boom",
  "5864": "ities",
  "5865": " cracked",
  "5866": " hugging",
  "5867": " radishes",
  "5868": " loving",
  "5869": " Stitch",
  "5870": " demanded",
  "5871": " Rachel",
  "5872": " opening",
  "5873": " paintings",
  "5874": " surrounded",
  "5875": " curiosity",
  "5876": " circus",
  "5877": " spraying",
  "5878": " removed",
  "5879": "amie",
  "5880": " gaze",
  "5881": " Green",
  "5882": " stripes",
  "5883": " honk",
  "5884": " catches",
  "5885": "edding",
  "5886": " zookeeper",
  "5887": " pebbles",
  "5888": " sting",
  "5889": " hardly",
  "5890": " loaded",
  "5891": " powers",
  "5892": " Pippa",
  "5893": "Sometimes",
  "5894": " pots",
  "5895": " splashes",
  "5896": " petted",
  "5897": " David",
  "5898": " matching",
  "5899": " belly",
  "5900": " stare",
  "5901": "Thanks",
  "5902": " toss",
  "5903": "ibb",
  "5904": "Yummy",
  "5905": " apologize",
  "5906": " whatever",
  "5907": " comforted",
  "5908": " rocked",
  "5909": " Birdie",
  "5910": " Bree",
  "5911": " decision",
  "5912": " ribbons",
  "5913": " Joy",
  "5914": "ern",
  "5915": " struggling",
  "5916": " expected",
  "5917": " deser",
  "5918": " steep",
  "5919": " chases",
  "5920": "wh",
  "5921": " neighbors",
  "5922": "During",
  "5923": " protected",
  "5924": " smiley",
  "5925": " granted",
  "5926": " crumb",
  "5927": " Mat",
  "5928": " purred",
  "5929": " diving",
  "5930": " sadness",
  "5931": "Whiskers",
  "5932": " organizing",
  "5933": "lowers",
  "5934": " dipped",
  "5935": " sunlight",
  "5936": " eagle",
  "5937": " heroes",
  "5938": " pastels",
  "5939": " Frank",
  "5940": " lied",
  "5941": "Ex",
  "5942": " Milly",
  "5943": " roads",
  "5944": " scru",
  "5945": " safer",
  "5946": " argued",
  "5947": " Water",
  "5948": " discovery",
  "5949": " goals",
  "5950": " villag",
  "5951": " Abigail",
  "5952": " peered",
  "5953": "use",
  "5954": "Ro",
  "5955": " Bouncy",
  "5956": "ana",
  "5957": " tim",
  "5958": " buckets",
  "5959": " dragons",
  "5960": "loe",
  "5961": " parties",
  "5962": " buildings",
  "5963": " beard",
  "5964": " wedding",
  "5965": " flutter",
  "5966": "Rex",
  "5967": " planets",
  "5968": " ann",
  "5969": " polishing",
  "5970": " fasc",
  "5971": " Robby",
  "5972": "ira",
  "5973": " released",
  "5974": " Chr",
  "5975": " crabs",
  "5976": " Watch",
  "5977": " tails",
  "5978": " Gogo",
  "5979": " Ju",
  "5980": " sausages",
  "5981": " argu",
  "5982": " contro",
  "5983": " wiggled",
  "5984": " bottles",
  "5985": " teased",
  "5986": " sled",
  "5987": " arguing",
  "5988": "uke",
  "5989": " padd",
  "5990": " dragged",
  "5991": " roaring",
  "5992": " Car",
  "5993": " movies",
  "5994": " shirts",
  "5995": " clearing",
  "5996": " gathering",
  "5997": " airpl",
  "5998": " wid",
  "5999": "joyed",
  "6000": " spiders",
  "6001": " teaches",
  "6002": " Remember",
  "6003": " limes",
  "6004": " actually",
  "6005": " overjoyed",
  "6006": " Dare",
  "6007": " sighs",
  "6008": " cuddle",
  "6009": " continue",
  "6010": " soaring",
  "6011": " smallest",
  "6012": " Jess",
  "6013": " drives",
  "6014": " rip",
  "6015": " sparkles",
  "6016": " situ",
  "6017": " refres",
  "6018": " grandmother",
  "6019": " cubes",
  "6020": " challenge",
  "6021": " talent",
  "6022": " Olly",
  "6023": " Splash",
  "6024": "umm",
  "6025": " pretends",
  "6026": " pouring",
  "6027": " peppers",
  "6028": " cuts",
  "6029": " fascin",
  "6030": " mane",
  "6031": " bank",
  "6032": " shivered",
  "6033": " quarreling",
  "6034": "ib",
  "6035": " dusty",
  "6036": " villagers",
  "6037": " stretching",
  "6038": "ley",
  "6039": " wondering",
  "6040": "njoy",
  "6041": " weeks",
  "6042": " wherever",
  "6043": " rings",
  "6044": "Tiny",
  "6045": " darker",
  "6046": " X",
  "6047": "sses",
  "6048": " onwards",
  "6049": "jam",
  "6050": " united",
  "6051": " Katie",
  "6052": "Achoo",
  "6053": " Everyday",
  "6054": " Being",
  "6055": "Johnny",
  "6056": " prettiest",
  "6057": " caut",
  "6058": " bead",
  "6059": " realize",
  "6060": " company",
  "6061": " penguins",
  "6062": "Fr",
  "6063": "Luna",
  "6064": "annah",
  "6065": " Leave",
  "6066": " completed",
  "6067": " Spring",
  "6068": "\u201d.",
  "6069": " bedtime",
  "6070": " Wisdom",
  "6071": " knights",
  "6072": " flags",
  "6073": " Je",
  "6074": " Because",
  "6075": " playroom",
  "6076": " Prin",
  "6077": " actions",
  "6078": " Zero",
  "6079": " learns",
  "6080": " gotten",
  "6081": "inda",
  "6082": "dam",
  "6083": " patience",
  "6084": " shrug",
  "6085": " kites",
  "6086": " fears",
  "6087": " responsible",
  "6088": " reply",
  "6089": " destination",
  "6090": " wires",
  "6091": " wrist",
  "6092": " dam",
  "6093": "aws",
  "6094": " applauded",
  "6095": " packing",
  "6096": " fault",
  "6097": " mountains",
  "6098": " scrubbed",
  "6099": " ma",
  "6100": "Uh",
  "6101": " crept",
  "6102": " satis",
  "6103": " Ava",
  "6104": " Earth",
  "6105": " pencils",
  "6106": " phot",
  "6107": " third",
  "6108": " wins",
  "6109": " sticking",
  "6110": " visiting",
  "6111": " wound",
  "6112": " baker",
  "6113": " reminder",
  "6114": " peas",
  "6115": " uses",
  "6116": "Grandpa",
  "6117": " control",
  "6118": "ashed",
  "6119": " joking",
  "6120": " instruct",
  "6121": " awake",
  "6122": " healed",
  "6123": " staring",
  "6124": " Put",
  "6125": " hitting",
  "6126": " Fish",
  "6127": " screaming",
  "6128": " begin",
  "6129": "uckily",
  "6130": "Rob",
  "6131": "ler",
  "6132": " Moo",
  "6133": " Friends",
  "6134": "icorn",
  "6135": " helmets",
  "6136": "enty",
  "6137": " unicorn",
  "6138": "seek",
  "6139": " Lou",
  "6140": "ica",
  "6141": "Silly",
  "6142": " towels",
  "6143": " creation",
  "6144": " chips",
  "6145": " wasted",
  "6146": " masks",
  "6147": "bie",
  "6148": "Mar",
  "6149": " Behind",
  "6150": " forgi",
  "6151": "laire",
  "6152": " items",
  "6153": " firefight",
  "6154": "Watch",
  "6155": " outdo",
  "6156": " lollipops",
  "6157": " glitter",
  "6158": " Hippy",
  "6159": " heav",
  "6160": " guns",
  "6161": " died",
  "6162": " seas",
  "6163": " arrive",
  "6164": "uddles",
  "6165": " stole",
  "6166": " weren",
  "6167": " scales",
  "6168": " perched",
  "6169": " accom",
  "6170": " practicing",
  "6171": " logs",
  "6172": " achieve",
  "6173": "ining",
  "6174": "die",
  "6175": " instructions",
  "6176": " agrees",
  "6177": " whose",
  "6178": " pumpkins",
  "6179": " swoop",
  "6180": " project",
  "6181": "Stay",
  "6182": " batteries",
  "6183": " candies",
  "6184": " snakes",
  "6185": " chirping",
  "6186": "Benny",
  "6187": " shelves",
  "6188": " protecting",
  "6189": " parked",
  "6190": " exact",
  "6191": " patiently",
  "6192": " Cra",
  "6193": " activ",
  "6194": " shoulders",
  "6195": " videos",
  "6196": " blows",
  "6197": "hee",
  "6198": "Fo",
  "6199": " promises",
  "6200": " dent",
  "6201": "go",
  "6202": "usan",
  "6203": "uest",
  "6204": " examined",
  "6205": "ners",
  "6206": "Doggy",
  "6207": "jamas",
  "6208": " airplane",
  "6209": " roses",
  "6210": " tasks",
  "6211": " accompl",
  "6212": "Dave",
  "6213": " Hoot",
  "6214": "Poppy",
  "6215": " Bop",
  "6216": "Bunny",
  "6217": " crumbs",
  "6218": " beads",
  "6219": "zes",
  "6220": " bowls",
  "6221": " listens",
  "6222": " Ol",
  "6223": "Pete",
  "6224": " Love",
  "6225": " Catty",
  "6226": " Brownie",
  "6227": " cough",
  "6228": " dolphins",
  "6229": " bunch",
  "6230": " guest",
  "6231": "cakes",
  "6232": " requested",
  "6233": " Jan",
  "6234": " remote",
  "6235": " reaching",
  "6236": " improved",
  "6237": " brand",
  "6238": "anta",
  "6239": "irm",
  "6240": "ayla",
  "6241": " alien",
  "6242": " Bye",
  "6243": " Chew",
  "6244": " copy",
  "6245": " Julie",
  "6246": " photos",
  "6247": " cheering",
  "6248": " Sun",
  "6249": "Bad",
  "6250": " Blink",
  "6251": " cans",
  "6252": "Time",
  "6253": " timer",
  "6254": " Cuddles",
  "6255": " By",
  "6256": " workers",
  "6257": " replaced",
  "6258": "athy",
  "6259": " stern",
  "6260": " Enjoy",
  "6261": "aster",
  "6262": "Mike",
  "6263": " neither",
  "6264": " passing",
  "6265": " misses",
  "6266": "Chirpy",
  "6267": " curtains",
  "6268": " rainbows",
  "6269": " confl",
  "6270": " rubs",
  "6271": " rolls",
  "6272": " patted",
  "6273": "uctantly",
  "6274": "George",
  "6275": " puppet",
  "6276": " outdoors",
  "6277": "esome",
  "6278": "ilo",
  "6279": " pajamas",
  "6280": " complaining",
  "6281": "dies",
  "6282": "Lola",
  "6283": " Squirrel",
  "6284": "Run",
  "6285": " lap",
  "6286": " closes",
  "6287": " beneath",
  "6288": " Princess",
  "6289": " tune",
  "6290": " drums",
  "6291": " Mouse",
  "6292": " refuse",
  "6293": " Beth",
  "6294": " filling",
  "6295": "Miss",
  "6296": " Sorry",
  "6297": "angled",
  "6298": "...",
  "6299": " sweat",
  "6300": " faced",
  "6301": " seven",
  "6302": " balanced",
  "6303": "neath",
  "6304": "bl",
  "6305": " Abby",
  "6306": " rescued",
  "6307": " quacked",
  "6308": "Paul",
  "6309": " awesome",
  "6310": "istle",
  "6311": " mission",
  "6312": " However",
  "6313": " 1",
  "6314": " cause",
  "6315": " cautious",
  "6316": " conflict",
  "6317": " vent",
  "6318": " observed",
  "6319": " guys",
  "6320": "  ",
  "6321": " introduc",
  "6322": " Thomas",
  "6323": "nie",
  "6324": " Our",
  "6325": " pastries",
  "6326": " exactly",
  "6327": " doctors",
  "6328": " rule",
  "6329": " policeman",
  "6330": " becoming",
  "6331": " mes",
  "6332": "uly",
  "6333": " rockets",
  "6334": " Dot",
  "6335": "you",
  "6336": " Yes",
  "6337": " fairies",
  "6338": "lay",
  "6339": " pout",
  "6340": "An",
  "6341": " insist",
  "6342": " blooming",
  "6343": " farther",
  "6344": " tractor",
  "6345": " Sad",
  "6346": "Oops",
  "6347": "avi",
  "6348": "Great",
  "6349": " included",
  "6350": "Zoom",
  "6351": "Fine",
  "6352": " remembering",
  "6353": " curly",
  "6354": " teamwork",
  "6355": "zie",
  "6356": " slam",
  "6357": " fascinated",
  "6358": " wobbled",
  "6359": " truly",
  "6360": " helpers",
  "6361": " sights",
  "6362": " paddle",
  "6363": " caused",
  "6364": " stumble",
  "6365": " firm",
  "6366": " recording",
  "6367": "Henry",
  "6368": " Jilly",
  "6369": "acob",
  "6370": " prayer",
  "6371": " spong",
  "6372": "kelly",
  "6373": "ais",
  "6374": "eah",
  "6375": " traded",
  "6376": " pointy",
  "6377": " thro",
  "6378": " supplies",
  "6379": " starfish",
  "6380": "gers",
  "6381": " situation",
  "6382": " everyday",
  "6383": " Ally",
  "6384": " neighbourhood",
  "6385": " inviting",
  "6386": " adding",
  "6387": " ornaments",
  "6388": " valued",
  "6389": "inkle",
  "6390": "Some",
  "6391": " reluctantly",
  "6392": " stays",
  "6393": " dots",
  "6394": " prettier",
  "6395": " bare",
  "6396": " tables",
  "6397": " desert",
  "6398": " snowmen",
  "6399": "araway",
  "6400": " steady",
  "6401": " minerals",
  "6402": " thorn",
  "6403": " faraway",
  "6404": "ody",
  "6405": " glasses",
  "6406": " ast",
  "6407": " Get",
  "6408": " Foxy",
  "6409": " swooped",
  "6410": " Welcome",
  "6411": " unf",
  "6412": " Two",
  "6413": " Sure",
  "6414": "Polly",
  "6415": " forks",
  "6416": " usual",
  "6417": " usually",
  "6418": " dar",
  "6419": " Jamie",
  "6420": " winked",
  "6421": " loading",
  "6422": " solut",
  "6423": " sneezing",
  "6424": " sponge",
  "6425": " Quick",
  "6426": " insects",
  "6427": " pans",
  "6428": "arter",
  "6429": "Dog",
  "6430": " sobbed",
  "6431": " Santa",
  "6432": "sm",
  "6433": " growling",
  "6434": "James",
  "6435": " throat",
  "6436": " Josh",
  "6437": " noses",
  "6438": " Chloe",
  "6439": " Want",
  "6440": " yourselves",
  "6441": " scarves",
  "6442": " confident",
  "6443": " Dizzy",
  "6444": " smarter",
  "6445": "agull",
  "6446": " superheroes",
  "6447": " Stay",
  "6448": " homework",
  "6449": "Joey",
  "6450": "Tina",
  "6451": " windy",
  "6452": " librarian",
  "6453": " Kids",
  "6454": "Days",
  "6455": "ora",
  "6456": " gems",
  "6457": " kicks",
  "6458": " underneath",
  "6459": " knowled",
  "6460": " itchy",
  "6461": " knowledge",
  "6462": " jackets",
  "6463": " For",
  "6464": " surface",
  "6465": " untie",
  "6466": " Skelly",
  "6467": " comm",
  "6468": "Yeah",
  "6469": "...\"",
  "6470": "eed",
  "6471": "Hold",
  "6472": " princesses",
  "6473": " Duck",
  "6474": "coon",
  "6475": "Those",
  "6476": "ido",
  "6477": " squares",
  "6478": " warnings",
  "6479": " giggling",
  "6480": " Henny",
  "6481": "son",
  "6482": "iar",
  "6483": " reads",
  "6484": "Our",
  "6485": "vin",
  "6486": " Mix",
  "6487": " choo",
  "6488": " younger",
  "6489": "Toby",
  "6490": " clowns",
  "6491": " biting",
  "6492": " ropes",
  "6493": " crowd",
  "6494": " Unfortunately",
  "6495": "pite",
  "6496": "True",
  "6497": "Danny",
  "6498": " paddled",
  "6499": " seagull",
  "6500": " delivered",
  "6501": " wears",
  "6502": " Mon",
  "6503": " twirl",
  "6504": " buzzed",
  "6505": " onions",
  "6506": " complained",
  "6507": " bumpy",
  "6508": "Ew",
  "6509": " stem",
  "6510": " Anne",
  "6511": "Mrs",
  "6512": " piggy",
  "6513": "ouch",
  "6514": " direction",
  "6515": " dived",
  "6516": " Ant",
  "6517": "ults",
  "6518": "Roar",
  "6519": " tangled",
  "6520": " startled",
  "6521": " leaning",
  "6522": "bbie",
  "6523": " badge",
  "6524": " Jones",
  "6525": " unp",
  "6526": " Po",
  "6527": "Grace",
  "6528": "though",
  "6529": " deal",
  "6530": " vowed",
  "6531": "Annie",
  "6532": "anes",
  "6533": " napkins",
  "6534": " risk",
  "6535": " tickled",
  "6536": " covers",
  "6537": " pec",
  "6538": "Shh",
  "6539": " yells",
  "6540": " satisfied",
  "6541": "int",
  "6542": " knocks",
  "6543": "tuce",
  "6544": " refreshed",
  "6545": "cuse",
  "6546": " cous",
  "6547": " arrows",
  "6548": " Sc",
  "6549": "Maggie",
  "6550": "Pe",
  "6551": " wipes",
  "6552": " Whistle",
  "6553": " Rover",
  "6554": "Unfortunately",
  "6555": " speaking",
  "6556": " lettuce",
  "6557": " guessing",
  "6558": " Quack",
  "6559": " ripe",
  "6560": " hides",
  "6561": " Susan",
  "6562": " choices",
  "6563": " slower",
  "6564": " Dodo",
  "6565": "Buzz",
  "6566": " signed",
  "6567": " seeker",
  "6568": " introduced",
  "6569": " creating",
  "6570": " singer",
  "6571": "uggles",
  "6572": " froze",
  "6573": " Matt",
  "6574": " cent",
  "6575": " joked",
  "6576": " toaster",
  "6577": " squeal",
  "6578": "fit",
  "6579": " explorers",
  "6580": "anging",
  "6581": " avo",
  "6582": "Sophie",
  "6583": " provided",
  "6584": " praying",
  "6585": " written",
  "6586": " discovering",
  "6587": " refle",
  "6588": " mushrooms",
  "6589": " Dara",
  "6590": "Excuse",
  "6591": " Lion",
  "6592": " knees",
  "6593": " Jeff",
  "6594": " paying",
  "6595": " Paws",
  "6596": "ences",
  "6597": " wandering",
  "6598": " hider",
  "6599": " Ash",
  "6600": " images",
  "6601": " stung",
  "6602": " barely",
  "6603": "Charlie",
  "6604": " Wink",
  "6605": " magnets",
  "6606": "?\",",
  "6607": " tipto",
  "6608": " behaving",
  "6609": " marked",
  "6610": "rrr",
  "6611": "brush",
  "6612": " restored",
  "6613": " leading",
  "6614": " Dee",
  "6615": " nine",
  "6616": "ky",
  "6617": " chuck",
  "6618": "lled",
  "6619": "Teddy",
  "6620": "ados",
  "6621": " gears",
  "6622": " greet",
  "6623": " Snuggles",
  "6624": " competition",
  "6625": " bravery",
  "6626": "eal",
  "6627": " outfit",
  "6628": " wishing",
  "6629": " pens",
  "6630": "aa",
  "6631": "oline",
  "6632": " ventured",
  "6633": " salty",
  "6634": " properly",
  "6635": " chat",
  "6636": " Ziggy",
  "6637": " dances",
  "6638": "tle",
  "6639": "amb",
  "6640": " ranger",
  "6641": " muscle",
  "6642": " deserve",
  "6643": " Betsy",
  "6644": " however",
  "6645": " rainy",
  "6646": " burst",
  "6647": "sequ",
  "6648": " matters",
  "6649": " ruining",
  "6650": " cobwebs",
  "6651": " darkness",
  "6652": " blocking",
  "6653": " Fu",
  "6654": " chefs",
  "6655": "usted",
  "6656": "itely",
  "6657": " consequ",
  "6658": " bak",
  "6659": " vines",
  "6660": "sty",
  "6661": " scur",
  "6662": " performed",
  "6663": " entire",
  "6664": " fab",
  "6665": "abel",
  "6666": " fabric",
  "6667": " basement",
  "6668": " least",
  "6669": "Sn",
  "6670": " scratches",
  "6671": " Buggy",
  "6672": " heavier",
  "6673": " Claire",
  "6674": " mints",
  "6675": " avocados",
  "6676": " twirling",
  "6677": "However",
  "6678": "rink",
  "6679": " Linda",
  "6680": "fl",
  "6681": " sunflowers",
  "6682": " losing",
  "6683": " scurried",
  "6684": " Jenna",
  "6685": " rainco",
  "6686": " swords",
  "6687": "Tweet",
  "6688": " click",
  "6689": "agic",
  "6690": " rotting",
  "6691": " Laser",
  "6692": " silent",
  "6693": " jobs",
  "6694": " flames",
  "6695": " necklaces",
  "6696": " relief",
  "6697": " Luke",
  "6698": " snat",
  "6699": " sewed",
  "6700": " Grumpy",
  "6701": "len",
  "6702": " tricky",
  "6703": " Skip",
  "6704": "ophia",
  "6705": "Follow",
  "6706": "Listen",
  "6707": "Jerry",
  "6708": " lighter",
  "6709": " Lena",
  "6710": " exha",
  "6711": " bows",
  "6712": " solution",
  "6713": " consequences",
  "6714": "Alex",
  "6715": "Beep",
  "6716": " stain",
  "6717": " pins",
  "6718": " unpacked",
  "6719": " tires",
  "6720": "Ab",
  "6721": "rance",
  "6722": " wraps",
  "6723": " partic",
  "6724": " races",
  "6725": " bumps",
  "6726": " decorating",
  "6727": "aisies",
  "6728": " wow",
  "6729": " backed",
  "6730": "cher",
  "6731": " cautiously",
  "6732": " purr",
  "6733": " needles",
  "6734": " dentist",
  "6735": " Pr",
  "6736": " lifting",
  "6737": "izzie",
  "6738": " accomplish",
  "6739": " Those",
  "6740": " triangles",
  "6741": " growls",
  "6742": " daisies",
  "6743": " annoy",
  "6744": " hesitated",
  "6745": "ept",
  "6746": " crackers",
  "6747": "oke",
  "6748": " stomped",
  "6749": " grabbing",
  "6750": " cott",
  "6751": " figured",
  "6752": " bodies",
  "6753": " mater",
  "6754": " buying",
  "6755": " Adam",
  "6756": " Tree",
  "6757": " material",
  "6758": " Rolly",
  "6759": " Fido",
  "6760": " swans",
  "6761": "vers",
  "6762": " ties",
  "6763": " gri",
  "6764": " grows",
  "6765": " sweets",
  "6766": " Goodbye",
  "6767": " cheeks",
  "6768": " Jessie",
  "6769": " owners",
  "6770": " flavor",
  "6771": " Cathy",
  "6772": "Big",
  "6773": " suffering",
  "6774": "vroom",
  "6775": " fact",
  "6776": " El",
  "6777": " groups",
  "6778": "bly",
  "6779": " forehead",
  "6780": " lungs",
  "6781": " interested",
  "6782": "Harry",
  "6783": " repa",
  "6784": " freed",
  "6785": " bakery",
  "6786": "Lilly",
  "6787": " Milo",
  "6788": " chuckled",
  "6789": "For",
  "6790": " Nothing",
  "6791": "itches",
  "6792": "Ru",
  "6793": " conn",
  "6794": " thud",
  "6795": " swept",
  "6796": " exhausted",
  "6797": "?'",
  "6798": " twinkling",
  "6799": " tapped",
  "6800": "Tw",
  "6801": " nect",
  "6802": "rosty",
  "6803": " nectar",
  "6804": "elle",
  "6805": " feast",
  "6806": " darling",
  "6807": "indr",
  "6808": " Mad",
  "6809": " worries",
  "6810": " uns",
  "6811": " fuzzy",
  "6812": " tunnels",
  "6813": " reason",
  "6814": " repaired",
  "6815": " Trust",
  "6816": " Copper",
  "6817": " Ball",
  "6818": " entrance",
  "6819": " activities",
  "6820": " pecked",
  "6821": "lets",
  "6822": " Try",
  "6823": " Hannah",
  "6824": " raindr",
  "6825": " meals",
  "6826": " completely",
  "6827": " Listen",
  "6828": "ctions",
  "6829": " particular",
  "6830": " nests",
  "6831": " waiter",
  "6832": " sense",
  "6833": " mailed",
  "6834": " cuddly",
  "6835": " colored",
  "6836": " leap",
  "6837": " Nana",
  "6838": "band",
  "6839": " plenty",
  "6840": "arky",
  "6841": " peeking",
  "6842": " slammed",
  "6843": "step",
  "6844": "no",
  "6845": " Cara",
  "6846": " players",
  "6847": " budge",
  "6848": " Birthday",
  "6849": " month",
  "6850": " Q",
  "6851": " forgets",
  "6852": " scra",
  "6853": " Oliver",
  "6854": " den",
  "6855": " handful",
  "6856": " genie",
  "6857": "iggie",
  "6858": " mer",
  "6859": "ossible",
  "6860": " Christ",
  "6861": " stool",
  "6862": " feeding",
  "6863": " talks",
  "6864": " films",
  "6865": " Pup",
  "6866": " Suzie",
  "6867": " passports",
  "6868": " baths",
  "6869": "May",
  "6870": " impossible",
  "6871": " determination",
  "6872": " buses",
  "6873": " printing",
  "6874": " designed",
  "6875": "boat",
  "6876": " opp",
  "6877": " bars",
  "6878": "ueen",
  "6879": "lephant",
  "6880": " suitcase",
  "6881": " spikes",
  "6882": " stolen",
  "6883": " counts",
  "6884": " wiping",
  "6885": " steer",
  "6886": " spreading",
  "6887": " Snap",
  "6888": "etty",
  "6889": " Rain",
  "6890": " lamb",
  "6891": " honked",
  "6892": " cowb",
  "6893": "Whee",
  "6894": "nies",
  "6895": "blings",
  "6896": " hops",
  "6897": " siblings",
  "6898": " separated",
  "6899": " fires",
  "6900": " chop",
  "6901": " sewing",
  "6902": " fever",
  "6903": " Twinkle",
  "6904": " twinkle",
  "6905": " ty",
  "6906": " camping",
  "6907": " Bloom",
  "6908": " changing",
  "6909": " Mira",
  "6910": " lower",
  "6911": "yes",
  "6912": "mas",
  "6913": " behavi",
  "6914": "retch",
  "6915": " dollhouse",
  "6916": "but",
  "6917": " celebration",
  "6918": " liqu",
  "6919": "Sunny",
  "6920": " squealed",
  "6921": " snatched",
  "6922": " backward",
  "6923": "itched",
  "6924": " age",
  "6925": " twice",
  "6926": " cash",
  "6927": "lee",
  "6928": "ho",
  "6929": " shrinking",
  "6930": " sway",
  "6931": " celebrating",
  "6932": " kings",
  "6933": " ache",
  "6934": " Peanut",
  "6935": "weed",
  "6936": "rious",
  "6937": " shops",
  "6938": "aura",
  "6939": " kittens",
  "6940": "Rose",
  "6941": " Gina",
  "6942": "cope",
  "6943": " Jessica",
  "6944": " Jacob",
  "6945": " hus",
  "6946": "airy",
  "6947": " touches",
  "6948": " pancakes",
  "6949": "hog",
  "6950": " avoid",
  "6951": " spat",
  "6952": " rotten",
  "6953": " Frosty",
  "6954": "rig",
  "6955": " paths",
  "6956": "ives",
  "6957": "cky",
  "6958": " calmed",
  "6959": " Nina",
  "6960": " Hold",
  "6961": " seaweed",
  "6962": " dropping",
  "6963": "Sandy",
  "6964": " twisting",
  "6965": " Jon",
  "6966": "iles",
  "6967": " students",
  "6968": " Mel",
  "6969": "Pipp",
  "6970": " stroked",
  "6971": " untied",
  "6972": "ne",
  "6973": "llen",
  "6974": "cl",
  "6975": " playhouse",
  "6976": "Millie",
  "6977": " puppies",
  "6978": " Re",
  "6979": " Sof",
  "6980": "hi",
  "6981": " astron",
  "6982": " screws",
  "6983": "igning",
  "6984": " somebody",
  "6985": " squish",
  "6986": " wakes",
  "6987": " liquid",
  "6988": "ammy",
  "6989": " loops",
  "6990": " Woof",
  "6991": " astronaut",
  "6992": " thrown",
  "6993": " bracelets",
  "6994": " Other",
  "6995": "immer",
  "6996": "aren",
  "6997": " wrapping",
  "6998": "Luckily",
  "6999": " plain",
  "7000": " aimed",
  "7001": " skunk",
  "7002": " planning",
  "7003": " tramp",
  "7004": " shoo",
  "7005": " pennies",
  "7006": " lifts",
  "7007": " dancers",
  "7008": "Dan",
  "7009": " sparks",
  "7010": " firefly",
  "7011": "pen",
  "7012": " cust",
  "7013": " Christmas",
  "7014": " poster",
  "7015": " directions",
  "7016": "yan",
  "7017": "endy",
  "7018": " rewarded",
  "7019": " objects",
  "7020": " husband",
  "7021": "using",
  "7022": "ingo",
  "7023": " reflection",
  "7024": "uppy",
  "7025": "Take",
  "7026": "river",
  "7027": " clues",
  "7028": " leads",
  "7029": " increased",
  "7030": " rising",
  "7031": " blocked",
  "7032": " Without",
  "7033": " Yesterday",
  "7034": " dod",
  "7035": " cousin",
  "7036": " hedgehog",
  "7037": " custom",
  "7038": "Kate",
  "7039": " forgetting",
  "7040": "rigued",
  "7041": "ude",
  "7042": " beginning",
  "7043": " storekeeper",
  "7044": " trampoline",
  "7045": " zebras",
  "7046": " snowfl",
  "7047": " pouted",
  "7048": " aff",
  "7049": " Mic",
  "7050": " \u2018",
  "7051": " borrowed",
  "7052": " Rollie",
  "7053": "Jump",
  "7054": " countryside",
  "7055": " Up",
  "7056": " mesmer",
  "7057": " Jay",
  "7058": " vehicles",
  "7059": " instrum",
  "7060": " Kayla",
  "7061": " Biggie",
  "7062": "ivity",
  "7063": " frowning",
  "7064": "Under",
  "7065": "Pat",
  "7066": " presses",
  "7067": " marker",
  "7068": "yond",
  "7069": "iece",
  "7070": " damage",
  "7071": " beyond",
  "7072": " Queen",
  "7073": " Only",
  "7074": "ivery",
  "7075": " fart",
  "7076": " Tara",
  "7077": "jo",
  "7078": " whispers",
  "7079": " swimsuit",
  "7080": " nibb",
  "7081": " health",
  "7082": " Robo",
  "7083": " slips",
  "7084": " Julia",
  "7085": " warmer",
  "7086": " flapping",
  "7087": " tiptoed",
  "7088": "armer",
  "7089": "itted",
  "7090": "ades",
  "7091": "Zip",
  "7092": " yelp",
  "7093": " regretted",
  "7094": " everybody",
  "7095": " rains",
  "7096": " laying",
  "7097": " glued",
  "7098": " Fire",
  "7099": " creations",
  "7100": " hearing",
  "7101": "iversity",
  "7102": " colder",
  "7103": " swir",
  "7104": "ael",
  "7105": " streets",
  "7106": " shaped",
  "7107": " Elephant",
  "7108": " fins",
  "7109": " rusty",
  "7110": "Out",
  "7111": " san",
  "7112": " cushions",
  "7113": " creativity",
  "7114": " farthest",
  "7115": " Mikey",
  "7116": "ans",
  "7117": " sale",
  "7118": "ibbit",
  "7119": "Always",
  "7120": " Rich",
  "7121": "Co",
  "7122": " Chirp",
  "7123": " strongest",
  "7124": " fits",
  "7125": " Sparky",
  "7126": " bells",
  "7127": "angle",
  "7128": " earn",
  "7129": " dollars",
  "7130": " Larry",
  "7131": "iam",
  "7132": " lending",
  "7133": " Moon",
  "7134": "eese",
  "7135": " cashier",
  "7136": " sniffs",
  "7137": " sank",
  "7138": " including",
  "7139": "Milly",
  "7140": " trembled",
  "7141": " raincoat",
  "7142": " stopping",
  "7143": " source",
  "7144": " indeed",
  "7145": " Snowman",
  "7146": "iti",
  "7147": " wobbly",
  "7148": "imon",
  "7149": " Missy",
  "7150": "ters",
  "7151": " single",
  "7152": " guests",
  "7153": " wee",
  "7154": " recommended",
  "7155": " spells",
  "7156": " accomplishment",
  "7157": " hopeful",
  "7158": " ends",
  "7159": " belts",
  "7160": " surprising",
  "7161": " Take",
  "7162": "stick",
  "7163": " seasons",
  "7164": " encourag",
  "7165": "Bear",
  "7166": " Els",
  "7167": " plans",
  "7168": "ichael",
  "7169": " supported",
  "7170": " slowed",
  "7171": "illed",
  "7172": " suffered",
  "7173": "eet",
  "7174": " performance",
  "7175": " gross",
  "7176": " artist",
  "7177": "Nina",
  "7178": "cho",
  "7179": " flavors",
  "7180": "iding",
  "7181": "ertain",
  "7182": " spins",
  "7183": "Quack",
  "7184": " raccoon",
  "7185": " raindrops",
  "7186": " labels",
  "7187": "uing",
  "7188": "arac",
  "7189": " forgiving",
  "7190": " delivery",
  "7191": "obody",
  "7192": " pours",
  "7193": " Woo",
  "7194": "ility",
  "7195": "the",
  "7196": "Bill",
  "7197": " vanilla",
  "7198": " turtles",
  "7199": " stands",
  "7200": "uess",
  "7201": " recipe",
  "7202": " beam",
  "7203": " tying",
  "7204": " Sw",
  "7205": " geese",
  "7206": " drawn",
  "7207": "Vroom",
  "7208": " willing",
  "7209": " wept",
  "7210": " robber",
  "7211": " Sophia",
  "7212": "elia",
  "7213": " charac",
  "7214": " Bones",
  "7215": " drivers",
  "7216": " queens",
  "7217": " pops",
  "7218": " corners",
  "7219": " grip",
  "7220": " die",
  "7221": " sailboat",
  "7222": " moo",
  "7223": "itude",
  "7224": " hallway",
  "7225": " imagining",
  "7226": " seconds",
  "7227": " widened",
  "7228": " Fuzzy",
  "7229": "Mine",
  "7230": " preparing",
  "7231": " adult",
  "7232": " coop",
  "7233": " Spirit",
  "7234": " grocer",
  "7235": " talented",
  "7236": " sailors",
  "7237": " Pam",
  "7238": " Beaky",
  "7239": "ummies",
  "7240": " Izzy",
  "7241": "lling",
  "7242": "Lulu",
  "7243": " watering",
  "7244": " tipped",
  "7245": " softer",
  "7246": " sending",
  "7247": " aside",
  "7248": " unsure",
  "7249": " knots",
  "7250": " treehouse",
  "7251": " horiz",
  "7252": " echo",
  "7253": " Lizzie",
  "7254": "igers",
  "7255": " notes",
  "7256": " achieved",
  "7257": " pupils",
  "7258": " pleasure",
  "7259": " horizon",
  "7260": " angels",
  "7261": " squeak",
  "7262": " hotter",
  "7263": " delivering",
  "7264": " Stella",
  "7265": " June",
  "7266": "Clara",
  "7267": " blinking",
  "7268": " curiously",
  "7269": " burrow",
  "7270": " Rudy",
  "7271": " symbols",
  "7272": " coup",
  "7273": "Ellie",
  "7274": " yum",
  "7275": " tweet",
  "7276": " passen",
  "7277": " det",
  "7278": " tummies",
  "7279": " Stretch",
  "7280": "wk",
  "7281": " Cindy",
  "7282": "alph",
  "7283": " tiss",
  "7284": " figures",
  "7285": " robots",
  "7286": " pigeons",
  "7287": "umbling",
  "7288": "oey",
  "7289": " bandages",
  "7290": " Robert",
  "7291": " hour",
  "7292": " Doctor",
  "7293": " tossed",
  "7294": " roars",
  "7295": " backwards",
  "7296": "Baby",
  "7297": "uzz",
  "7298": "atur",
  "7299": " rather",
  "7300": " merma",
  "7301": "Maria",
  "7302": " zipping",
  "7303": "cited",
  "7304": " Play",
  "7305": " Crab",
  "7306": "ighting",
  "7307": "Moo",
  "7308": "Dolly",
  "7309": " groceries",
  "7310": "Put",
  "7311": " unw",
  "7312": "Very",
  "7313": "prin",
  "7314": " among",
  "7315": " icing",
  "7316": "!\u201d.",
  "7317": " afterwards",
  "7318": " blown",
  "7319": " prove",
  "7320": " rumble",
  "7321": "ipper",
  "7322": " screwd",
  "7323": " glee",
  "7324": " sped",
  "7325": "ushing",
  "7326": " Titi",
  "7327": " Tia",
  "7328": " overcome",
  "7329": " dip",
  "7330": "Ruby",
  "7331": "Quick",
  "7332": " surfboard",
  "7333": " shovels",
  "7334": " \n",
  "7335": " slices",
  "7336": " Toot",
  "7337": " wobble",
  "7338": " mate",
  "7339": " merry",
  "7340": " firefighters",
  "7341": " chip",
  "7342": " Turt",
  "7343": "eds",
  "7344": "Jul",
  "7345": " heading",
  "7346": " disturbing",
  "7347": " Abbie",
  "7348": " swall",
  "7349": " reversed",
  "7350": " swallowed",
  "7351": "Frank",
  "7352": " scored",
  "7353": " flipped",
  "7354": " squeezing",
  "7355": " Jump",
  "7356": "usty",
  "7357": " waking",
  "7358": "aty",
  "7359": "Su",
  "7360": "Sad",
  "7361": " intrigued",
  "7362": "Like",
  "7363": " maker",
  "7364": "Betty",
  "7365": " puff",
  "7366": " encouraging",
  "7367": " Barky",
  "7368": " couple",
  "7369": "awn",
  "7370": " hawk",
  "7371": " aud",
  "7372": "osen",
  "7373": " chosen",
  "7374": " Ron",
  "7375": "hew",
  "7376": " Ex",
  "7377": "onies",
  "7378": " designs",
  "7379": " Farmer",
  "7380": " Ang",
  "7381": " squishy",
  "7382": " slipping",
  "7383": " markers",
  "7384": " screwdriver",
  "7385": " center",
  "7386": " Emmy",
  "7387": " tigers",
  "7388": " respond",
  "7389": " gardener",
  "7390": "Ribbit",
  "7391": " rivers",
  "7392": " frowns",
  "7393": "iley",
  "7394": " jars",
  "7395": " fluttered",
  "7396": " Sadly",
  "7397": "pecting",
  "7398": "bird",
  "7399": " Kit",
  "7400": " secure",
  "7401": " firefighter",
  "7402": " Sl",
  "7403": " Ryan",
  "7404": " suits",
  "7405": " creamy",
  "7406": "ashes",
  "7407": " sprinkled",
  "7408": " ignoring",
  "7409": " bru",
  "7410": " sharks",
  "7411": " giggles",
  "7412": " Laura",
  "7413": " tissue",
  "7414": " tighter",
  "7415": " firmly",
  "7416": "ounce",
  "7417": "fly",
  "7418": " shown",
  "7419": " familiar",
  "7420": " thorns",
  "7421": "Spike",
  "7422": " Wo",
  "7423": " drawers",
  "7424": "child",
  "7425": "Car",
  "7426": " express",
  "7427": " Zee",
  "7428": " audience",
  "7429": " daring",
  "7430": " cloudy",
  "7431": "ments",
  "7432": " performing",
  "7433": " def",
  "7434": " crossing",
  "7435": " cor",
  "7436": " coloured",
  "7437": "rat",
  "7438": " ais",
  "7439": " Nick",
  "7440": "ae",
  "7441": "Get",
  "7442": " pedaled",
  "7443": " gracefully",
  "7444": " mixture",
  "7445": " til",
  "7446": "ggy",
  "7447": " todd",
  "7448": " yielded",
  "7449": " haircuts",
  "7450": " ponies",
  "7451": " nervously",
  "7452": " disob",
  "7453": " crowns",
  "7454": " Sleep",
  "7455": " bits",
  "7456": "bbled",
  "7457": " hangers",
  "7458": " Patch",
  "7459": " pays",
  "7460": "Zoomy",
  "7461": " stroke",
  "7462": " 2",
  "7463": "Bang",
  "7464": " peck",
  "7465": " ev",
  "7466": "parent",
  "7467": "fall",
  "7468": " napped",
  "7469": "een",
  "7470": "aven",
  "7471": " respected",
  "7472": "Bessie",
  "7473": " minded",
  "7474": "ddie",
  "7475": "ably",
  "7476": " tested",
  "7477": "ading",
  "7478": "Boys",
  "7479": " University",
  "7480": "Kim",
  "7481": " Chris",
  "7482": " Near",
  "7483": " beeh",
  "7484": " Turtle",
  "7485": "iona",
  "7486": " wisely",
  "7487": " surfing",
  "7488": " neighbours",
  "7489": "arrow",
  "7490": "vered",
  "7491": "arlings",
  "7492": " shady",
  "7493": " darlings",
  "7494": " magician",
  "7495": " enthusiasm",
  "7496": " sails",
  "7497": "kend",
  "7498": " stitches",
  "7499": "Dear",
  "7500": " Tweetie",
  "7501": "Freddy",
  "7502": " weekend",
  "7503": " thoughts",
  "7504": " reminds",
  "7505": " fleas",
  "7506": "tha",
  "7507": " temper",
  "7508": "oring",
  "7509": " surroundings",
  "7510": " spits",
  "7511": "antha",
  "7512": " teams",
  "7513": " lessons",
  "7514": " fills",
  "7515": " flip",
  "7516": " Along",
  "7517": " paintbrush",
  "7518": " melons",
  "7519": " hoops",
  "7520": " mermaid",
  "7521": "oni",
  "7522": "Katie",
  "7523": " grandchild",
  "7524": " explo",
  "7525": " sports",
  "7526": " elbow",
  "7527": "Guess",
  "7528": " Fighting",
  "7529": " longest",
  "7530": " lies",
  "7531": " amount",
  "7532": "rac",
  "7533": "lle",
  "7534": "cused",
  "7535": " panicked",
  "7536": " grandparent",
  "7537": " cleaner",
  "7538": "oga",
  "7539": " scooters",
  "7540": " sill",
  "7541": " lent",
  "7542": "ongrat",
  "7543": "ita",
  "7544": "immering",
  "7545": " beloved",
  "7546": "ongratul",
  "7547": "Pippin",
  "7548": " beehive",
  "7549": "Alright",
  "7550": " oysters",
  "7551": " forgiven",
  "7552": " magazines",
  "7553": " arr",
  "7554": " Wise",
  "7555": " repeating",
  "7556": " elf",
  "7557": " discussed",
  "7558": " sweetest",
  "7559": " nightmares",
  "7560": " Thanks",
  "7561": "Keep",
  "7562": " wadd",
  "7563": " Maya",
  "7564": " reass",
  "7565": " lace",
  "7566": " Granny",
  "7567": " nur",
  "7568": " tubes",
  "7569": " Willy",
  "7570": " spoonful",
  "7571": "Am",
  "7572": " understands",
  "7573": " bathing",
  "7574": " nood",
  "7575": " Zoey",
  "7576": "asty",
  "7577": "ancy",
  "7578": "Jazz",
  "7579": "Uncle",
  "7580": " sweep",
  "7581": " manners",
  "7582": " wrink",
  "7583": "crow",
  "7584": " sprang",
  "7585": " bully",
  "7586": " Yet",
  "7587": " Holly",
  "7588": "romise",
  "7589": "onna",
  "7590": " guide",
  "7591": " crew",
  "7592": " breathed",
  "7593": "while",
  "7594": "ently",
  "7595": "steps",
  "7596": "ilda",
  "7597": " Bally",
  "7598": " bulbs",
  "7599": " wiggly",
  "7600": " grassy",
  "7601": " neare",
  "7602": " coug",
  "7603": " solving",
  "7604": " testing",
  "7605": " spies",
  "7606": " sheets",
  "7607": " Roo",
  "7608": " footsteps",
  "7609": " speeding",
  "7610": " focused",
  "7611": "ntil",
  "7612": "Afterwards",
  "7613": "?!\"",
  "7614": "ounced",
  "7615": "cept",
  "7616": " braver",
  "7617": " mesmerized",
  "7618": " hesitant",
  "7619": " camel",
  "7620": " licking",
  "7621": " Sparkle",
  "7622": " Puppy",
  "7623": " joining",
  "7624": " Martha",
  "7625": " rushing",
  "7626": " Well",
  "7627": "Kiki",
  "7628": " polar",
  "7629": " greeted",
  "7630": " changes",
  "7631": " worn",
  "7632": "espite",
  "7633": "Which",
  "7634": "--",
  "7635": " Nobody",
  "7636": " Bubb",
  "7637": "undred",
  "7638": " materials",
  "7639": " bicycles",
  "7640": " stored",
  "7641": " peacefully",
  "7642": " mast",
  "7643": "Leave",
  "7644": " anger",
  "7645": " terrified",
  "7646": " ships",
  "7647": " politely",
  "7648": " spills",
  "7649": " spice",
  "7650": " nuzz",
  "7651": " gonna",
  "7652": " Show",
  "7653": " knives",
  "7654": "Snow",
  "7655": " scarecrow",
  "7656": " burying",
  "7657": " evil",
  "7658": " Mixy",
  "7659": "ppies",
  "7660": "freeze",
  "7661": " scattering",
  "7662": "ca",
  "7663": " healing",
  "7664": " donkey",
  "7665": " aren",
  "7666": " aeroplanes",
  "7667": "Even",
  "7668": " miles",
  "7669": " seals",
  "7670": "amboo",
  "7671": " Chewy",
  "7672": "beep",
  "7673": " dump",
  "7674": " worrying",
  "7675": "zoom",
  "7676": "Bee",
  "7677": "Penny",
  "7678": " puzzled",
  "7679": "David",
  "7680": " stacked",
  "7681": " Lenny",
  "7682": " Nice",
  "7683": " Kip",
  "7684": " loses",
  "7685": "ipes",
  "7686": "dding",
  "7687": " travelled",
  "7688": " baskets",
  "7689": " Win",
  "7690": " Okay",
  "7691": "Hurry",
  "7692": " blast",
  "7693": " gazing",
  "7694": " temperature",
  "7695": " Tess",
  "7696": " tasting",
  "7697": " rats",
  "7698": " dripping",
  "7699": " clue",
  "7700": " und",
  "7701": " believing",
  "7702": " pinching",
  "7703": " 10",
  "7704": "erm",
  "7705": " soaking",
  "7706": "isc",
  "7707": "rect",
  "7708": " Isn",
  "7709": " sandy",
  "7710": " Simon",
  "7711": "anwhile",
  "7712": " punishment",
  "7713": "rey",
  "7714": " banged",
  "7715": " Abi",
  "7716": "Binky",
  "7717": " crashing",
  "7718": " humans",
  "7719": " hundred",
  "7720": " force",
  "7721": " Ana",
  "7722": " snowflakes",
  "7723": " gest",
  "7724": " swimmer",
  "7725": " Lia",
  "7726": " Chess",
  "7727": " Fairy",
  "7728": " beeped",
  "7729": " resisted",
  "7730": " relaxing",
  "7731": "form",
  "7732": " quarreled",
  "7733": "elie",
  "7734": " toddler",
  "7735": " ramp",
  "7736": " Wendy",
  "7737": " joins",
  "7738": " delayed",
  "7739": " \n \n",
  "7740": "abby",
  "7741": " dressing",
  "7742": " backpacks",
  "7743": " Ph",
  "7744": "years",
  "7745": " flight",
  "7746": " Luckily",
  "7747": "orter",
  "7748": " lipstick",
  "7749": "By",
  "7750": " encouragement",
  "7751": " covering",
  "7752": " Te",
  "7753": "Two",
  "7754": "Open",
  "7755": " toward",
  "7756": " purpose",
  "7757": " benches",
  "7758": " scraped",
  "7759": "Bow",
  "7760": " correct",
  "7761": " Cow",
  "7762": "'.\"",
  "7763": " focus",
  "7764": " Judy",
  "7765": " permitted",
  "7766": " bamboo",
  "7767": "Spe",
  "7768": " twinkled",
  "7769": " months",
  "7770": " freedom",
  "7771": " potion",
  "7772": " languages",
  "7773": "Tony",
  "7774": " risks",
  "7775": " orders",
  "7776": " master",
  "7777": "shm",
  "7778": " poppies",
  "7779": " noodles",
  "7780": " wounds",
  "7781": " faded",
  "7782": "shmallow",
  "7783": "opes",
  "7784": "rier",
  "7785": "Kids",
  "7786": "isions",
  "7787": " Jojo",
  "7788": "Birdy",
  "7789": " creams",
  "7790": " cheers",
  "7791": " cells",
  "7792": " birdhouse",
  "7793": " adults",
  "7794": " annoyed",
  "7795": " unwra",
  "7796": " Herb",
  "7797": " sniffing",
  "7798": "Buzzy",
  "7799": "ecca",
  "7800": " sneezes",
  "7801": " puck",
  "7802": " opinions",
  "7803": " floats",
  "7804": "andas",
  "7805": "Instead",
  "7806": " flown",
  "7807": " handsome",
  "7808": " scen",
  "7809": "bage",
  "7810": " nodding",
  "7811": " burnt",
  "7812": " Mint",
  "7813": " smelling",
  "7814": " 5",
  "7815": " height",
  "7816": " drifted",
  "7817": "ider",
  "7818": " within",
  "7819": " slither",
  "7820": " scient",
  "7821": " damaged",
  "7822": " bothering",
  "7823": " tearing",
  "7824": " pleaded",
  "7825": " instruments",
  "7826": "da",
  "7827": "Back",
  "7828": " ease",
  "7829": " Ali",
  "7830": "Goodnight",
  "7831": " scientist",
  "7832": " Marie",
  "7833": "Mira",
  "7834": " seller",
  "7835": " pound",
  "7836": " wasting",
  "7837": " handing",
  "7838": " Say",
  "7839": " germ",
  "7840": " dreamt",
  "7841": " files",
  "7842": " results",
  "7843": " destroying",
  "7844": " Mabel",
  "7845": "bell",
  "7846": " explains",
  "7847": " characters",
  "7848": " brushing",
  "7849": " Ste",
  "7850": "ousy",
  "7851": "Carl",
  "7852": " hiss",
  "7853": " certain",
  "7854": " Razor",
  "7855": " Cr",
  "7856": "Behind",
  "7857": "Pandy",
  "7858": " sweaty",
  "7859": " Hug",
  "7860": "unched",
  "7861": " business",
  "7862": "ition",
  "7863": " postman",
  "7864": " engines",
  "7865": " Robbie",
  "7866": "Try",
  "7867": " talents",
  "7868": " onward",
  "7869": " sternly",
  "7870": " bravest",
  "7871": "prints",
  "7872": "cake",
  "7873": " scares",
  "7874": " Pen",
  "7875": " Janie",
  "7876": " mosquitoes",
  "7877": " switched",
  "7878": " minds",
  "7879": " manag",
  "7880": "under",
  "7881": " tuck",
  "7882": " stomp",
  "7883": " Judge",
  "7884": "urious",
  "7885": "uel",
  "7886": " snuck",
  "7887": " apologised",
  "7888": " bitten",
  "7889": "attered",
  "7890": "ashing",
  "7891": " tilted",
  "7892": " reminding",
  "7893": " desper",
  "7894": " decisions",
  "7895": " Poor",
  "7896": " singers",
  "7897": " behavior",
  "7898": "bbers",
  "7899": "inny",
  "7900": "aver",
  "7901": " squeaked",
  "7902": " peeled",
  "7903": " Everybody",
  "7904": " purrs",
  "7905": " displayed",
  "7906": " yumm",
  "7907": " rustling",
  "7908": " treated",
  "7909": " matey",
  "7910": " Bra",
  "7911": " smashed",
  "7912": " Until",
  "7913": " planting",
  "7914": " neatly",
  "7915": " marshmallow",
  "7916": " insp",
  "7917": " cracks",
  "7918": " Bess",
  "7919": " grandparents",
  "7920": " yelped",
  "7921": " scamp",
  "7922": " sy",
  "7923": " coloring",
  "7924": " bellies",
  "7925": " shines",
  "7926": " failed",
  "7927": " Navy",
  "7928": " hoo",
  "7929": " Shadow",
  "7930": " Yoga",
  "7931": " Loop",
  "7932": " zooms",
  "7933": " breathing",
  "7934": "line",
  "7935": " Make",
  "7936": "rup",
  "7937": " nasty",
  "7938": " combed",
  "7939": " despite",
  "7940": " pandas",
  "7941": "ighing",
  "7942": " address",
  "7943": "Tilly",
  "7944": " waterfall",
  "7945": "uffin",
  "7946": "omp",
  "7947": " echoed",
  "7948": "cc",
  "7949": "Abigail",
  "7950": " antic",
  "7951": " Angel",
  "7952": " wider",
  "7953": " robbers",
  "7954": " edges",
  "7955": "Play",
  "7956": " sweaters",
  "7957": " doorway",
  "7958": " Todd",
  "7959": "evin",
  "7960": " inj",
  "7961": "Aunt",
  "7962": " flaps",
  "7963": " tar",
  "7964": " magnif",
  "7965": " gap",
  "7966": " disobey",
  "7967": " Blinky",
  "7968": "wise",
  "7969": "Liz",
  "7970": " Michael",
  "7971": "ulp",
  "7972": " Gary",
  "7973": " Flick",
  "7974": "Wake",
  "7975": " scolds",
  "7976": "oscope",
  "7977": "orking",
  "7978": "father",
  "7979": " taped",
  "7980": "Slow",
  "7981": " swap",
  "7982": " backs",
  "7983": " action",
  "7984": "Ros",
  "7985": " crawls",
  "7986": " Mindy",
  "7987": " gobbled",
  "7988": " warri",
  "7989": " Fishy",
  "7990": " Eddie",
  "7991": " steth",
  "7992": " sever",
  "7993": " probably",
  "7994": " newspapers",
  "7995": "Lena",
  "7996": " shinier",
  "7997": " encount",
  "7998": " several",
  "7999": " serving",
  "8000": " occ",
  "8001": "Rock",
  "8002": " quieter",
  "8003": " plucked",
  "8004": " Meg",
  "8005": " ouch",
  "8006": " grandson",
  "8007": " connected",
  "8008": "tock",
  "8009": "iel",
  "8010": " squaw",
  "8011": " Share",
  "8012": "igger",
  "8013": "Adam",
  "8014": " student",
  "8015": "ibi",
  "8016": "Ted",
  "8017": "Fl",
  "8018": " plot",
  "8019": " gesture",
  "8020": "fire",
  "8021": "Too",
  "8022": " doorbell",
  "8023": " cares",
  "8024": " simply",
  "8025": " rescuing",
  "8026": " Se",
  "8027": " goo",
  "8028": "Shrink",
  "8029": " spy",
  "8030": " rows",
  "8031": "mies",
  "8032": " whistles",
  "8033": " shorter",
  "8034": " Zippy",
  "8035": "vant",
  "8036": " snaps",
  "8037": " astronauts",
  "8038": " Time",
  "8039": "Magic",
  "8040": " unpacking",
  "8041": " cottage",
  "8042": "ssss",
  "8043": " accidents",
  "8044": " swo",
  "8045": "Steve",
  "8046": " swollen",
  "8047": " mood",
  "8048": " Nut",
  "8049": "abelle",
  "8050": "Zara",
  "8051": " bothered",
  "8052": " Mousy",
  "8053": "anie",
  "8054": "found",
  "8055": "Hannah",
  "8056": " stethoscope",
  "8057": " trusting",
  "8058": " causing",
  "8059": "Mat",
  "8060": "Mad",
  "8061": " Dina",
  "8062": " throughout",
  "8063": " sou",
  "8064": " leapt",
  "8065": " dresser",
  "8066": "aint",
  "8067": "retty",
  "8068": "Olive",
  "8069": " proper",
  "8070": " pills",
  "8071": " runner",
  "8072": " prayers",
  "8073": " joyful",
  "8074": "mates",
  "8075": "Thomas",
  "8076": " locks",
  "8077": " target",
  "8078": " Prince",
  "8079": "what",
  "8080": "Jamie",
  "8081": " goats",
  "8082": " dears",
  "8083": " Wait",
  "8084": "rest",
  "8085": "artled",
  "8086": "Red",
  "8087": " munch",
  "8088": " flips",
  "8089": " Karen",
  "8090": " Bang",
  "8091": " waddled",
  "8092": " lowered",
  "8093": " Cro",
  "8094": " envelopes",
  "8095": " stepping",
  "8096": " cons",
  "8097": " Jackie",
  "8098": " teachers",
  "8099": " cowboy",
  "8100": " char",
  "8101": " Toys",
  "8102": " Ralph",
  "8103": " inches",
  "8104": " explorer",
  "8105": " Ready",
  "8106": "ears",
  "8107": " playd",
  "8108": " anticip",
  "8109": " Vroom",
  "8110": "unity",
  "8111": "ening",
  "8112": " Ruff",
  "8113": "Nice",
  "8114": "Finn",
  "8115": " floors",
  "8116": " Pl",
  "8117": " Bad",
  "8118": " uniforms",
  "8119": " knocking",
  "8120": " efforts",
  "8121": "lied",
  "8122": " aware",
  "8123": " Tri",
  "8124": "Someone",
  "8125": " nearly",
  "8126": " footprints",
  "8127": " Fiona",
  "8128": " glitt",
  "8129": "llas",
  "8130": " disc",
  "8131": " appreciation",
  "8132": " Ria",
  "8133": " sens",
  "8134": "ivi",
  "8135": " whimp",
  "8136": " trot",
  "8137": "oosh",
  "8138": " plug",
  "8139": " necks",
  "8140": " collap",
  "8141": " checks",
  "8142": " lapt",
  "8143": " except",
  "8144": " charge",
  "8145": " Jacky",
  "8146": " Honey",
  "8147": "omb",
  "8148": " umbrellas",
  "8149": " fluttering",
  "8150": " stamped",
  "8151": " sandcastles",
  "8152": "ails",
  "8153": "acy",
  "8154": " shrank",
  "8155": " Davey",
  "8156": " statues",
  "8157": " prick",
  "8158": " finishing",
  "8159": " Amelia",
  "8160": "rily",
  "8161": "iscuit",
  "8162": "Hoppy",
  "8163": " passengers",
  "8164": " hunters",
  "8165": " dodged",
  "8166": " adds",
  "8167": "rons",
  "8168": " stroll",
  "8169": " chocolates",
  "8170": " Gerry",
  "8171": "order",
  "8172": " nurses",
  "8173": " germs",
  "8174": "oger",
  "8175": " weeds",
  "8176": " aisle",
  "8177": " wrigg",
  "8178": " sets",
  "8179": " aprons",
  "8180": "issa",
  "8181": ".'\"",
  "8182": " scratching",
  "8183": " novels",
  "8184": " demanding",
  "8185": " Taking",
  "8186": " meows",
  "8187": "Lucky",
  "8188": "Dr",
  "8189": " minding",
  "8190": " killed",
  "8191": " driveway",
  "8192": " discussing",
  "8193": "urrender",
  "8194": " becomes",
  "8195": " Cari",
  "8196": " attack",
  "8197": " toolbox",
  "8198": " posit",
  "8199": " laptop",
  "8200": " haird",
  "8201": " Eliz",
  "8202": "Speedy",
  "8203": " Sadie",
  "8204": " Despite",
  "8205": " scampered",
  "8206": " Gl",
  "8207": "sol",
  "8208": " bounces",
  "8209": " supplied",
  "8210": " sprays",
  "8211": " tempt",
  "8212": " deed",
  "8213": "Coco",
  "8214": " friendships",
  "8215": " erase",
  "8216": " suggestion",
  "8217": " closing",
  "8218": " burns",
  "8219": "Arrr",
  "8220": " springing",
  "8221": " slapping",
  "8222": " belongings",
  "8223": " anticipation",
  "8224": " invites",
  "8225": " forgives",
  "8226": " cotton",
  "8227": " twists",
  "8228": " form",
  "8229": " Stan",
  "8230": " rays",
  "8231": " humming",
  "8232": " snuggle",
  "8233": " massages",
  "8234": " shall",
  "8235": " newfound",
  "8236": " models",
  "8237": "onnie",
  "8238": " ghosts",
  "8239": " responded",
  "8240": " expecting",
  "8241": " Shelly",
  "8242": "Does",
  "8243": " cheated",
  "8244": " Wooly",
  "8245": "Gigi",
  "8246": " carries",
  "8247": "otte",
  "8248": " traveling",
  "8249": " cond",
  "8250": " Ne",
  "8251": " battle",
  "8252": " although",
  "8253": " invitations",
  "8254": "alloween",
  "8255": " mommies",
  "8256": " Bibi",
  "8257": " refreshing",
  "8258": " aim",
  "8259": " rowed",
  "8260": " presented",
  "8261": " conc",
  "8262": "hel",
  "8263": "ots",
  "8264": " twenty",
  "8265": " Bumpy",
  "8266": " squir",
  "8267": " foxes",
  "8268": " cooper",
  "8269": "rie",
  "8270": "arlotte",
  "8271": " final",
  "8272": " duckling",
  "8273": " cafe",
  "8274": " marshmallows",
  "8275": " jets",
  "8276": "Pip",
  "8277": " designing",
  "8278": " clicked",
  "8279": " Zipper",
  "8280": "oor",
  "8281": " beaver",
  "8282": "five",
  "8283": " Whoever",
  "8284": " Muffin",
  "8285": " Halloween",
  "8286": " \u2014",
  "8287": " mugs",
  "8288": " Although",
  "8289": " drown",
  "8290": " tricycle",
  "8291": " picnics",
  "8292": " oppos",
  "8293": " convin",
  "8294": " congratul",
  "8295": " Ruth",
  "8296": " Excited",
  "8297": "iens",
  "8298": " scoops",
  "8299": " Cle",
  "8300": "po",
  "8301": " travels",
  "8302": " Pop",
  "8303": " Maddie",
  "8304": "inted",
  "8305": "Sadly",
  "8306": " questioned",
  "8307": " aliens",
  "8308": "Near",
  "8309": " tests",
  "8310": " strips",
  "8311": " Speed",
  "8312": " craft",
  "8313": "atty",
  "8314": "Mouse",
  "8315": " defe",
  "8316": " Flutter",
  "8317": "covered",
  "8318": " Bubba",
  "8319": "iri",
  "8320": "roken",
  "8321": "Hmm",
  "8322": "Elly",
  "8323": "Br",
  "8324": "Ball",
  "8325": " fights",
  "8326": " opposite",
  "8327": " Im",
  "8328": " Biggy",
  "8329": "Find",
  "8330": "Chloe",
  "8331": " grandfather",
  "8332": " encountered",
  "8333": " Never",
  "8334": " raising",
  "8335": " rout",
  "8336": " decl",
  "8337": " afford",
  "8338": " upside",
  "8339": "inch",
  "8340": "iment",
  "8341": " realizes",
  "8342": " Vivi",
  "8343": "Meanwhile",
  "8344": "Jess",
  "8345": " sincere",
  "8346": " flashed",
  "8347": " calmly",
  "8348": " Rita",
  "8349": "aturday",
  "8350": " yawning",
  "8351": "Trust",
  "8352": "Choo",
  "8353": " cupcakes",
  "8354": " crystals",
  "8355": " buddy",
  "8356": " Truck",
  "8357": " Samantha",
  "8358": "verse",
  "8359": "byes",
  "8360": "Both",
  "8361": " buckled",
  "8362": " Flo",
  "8363": "ris",
  "8364": " winners",
  "8365": " weapons",
  "8366": " defin",
  "8367": " packages",
  "8368": " Saturday",
  "8369": " Mina",
  "8370": "Josh",
  "8371": "',",
  "8372": " caw",
  "8373": " attem",
  "8374": "shadow",
  "8375": " sacks",
  "8376": " messes",
  "8377": " goodbyes",
  "8378": " cheat",
  "8379": "val",
  "8380": "quet",
  "8381": " coach",
  "8382": "emies",
  "8383": " enemies",
  "8384": " drift",
  "8385": " convers",
  "8386": " caps",
  "8387": " Louise",
  "8388": " Eva",
  "8389": "rian",
  "8390": " admiration",
  "8391": "asha",
  "8392": " yummiest",
  "8393": " scrub",
  "8394": " returning",
  "8395": " swallow",
  "8396": " Softy",
  "8397": " Megan",
  "8398": "Since",
  "8399": " unable",
  "8400": " sprout",
  "8401": " sadder",
  "8402": " Another",
  "8403": "ooks",
  "8404": " Playing",
  "8405": "ugging",
  "8406": " brightest",
  "8407": " bless",
  "8408": "reverse",
  "8409": " respon",
  "8410": " freezing",
  "8411": " Yawn",
  "8412": " response",
  "8413": " garbage",
  "8414": " Man",
  "8415": " cosy",
  "8416": " Oh",
  "8417": "erk",
  "8418": " opport",
  "8419": " odd",
  "8420": " honking",
  "8421": " diamonds",
  "8422": " bride",
  "8423": "stalk",
  "8424": "antastic",
  "8425": " reapp",
  "8426": " whoever",
  "8427": " whispering",
  "8428": " stretches",
  "8429": " prevented",
  "8430": "mine",
  "8431": "Brrr",
  "8432": " weighs",
  "8433": " journeys",
  "8434": " awoke",
  "8435": " awful",
  "8436": " Gray",
  "8437": "off",
  "8438": "alth",
  "8439": " stall",
  "8440": " born",
  "8441": " Maisy",
  "8442": " traps",
  "8443": " spices",
  "8444": " dragonfly",
  "8445": " reassured",
  "8446": " clip",
  "8447": "vy",
  "8448": "ivia",
  "8449": " playdate",
  "8450": " beanstalk",
  "8451": " argum",
  "8452": "Hop",
  "8453": " visitors",
  "8454": " examining",
  "8455": " definitely",
  "8456": " customer",
  "8457": " beetles",
  "8458": " automobiles",
  "8459": "ici",
  "8460": " stuffing",
  "8461": "orse",
  "8462": "bble",
  "8463": "broken",
  "8464": " washes",
  "8465": "cie",
  "8466": " bomb",
  "8467": "Rachel",
  "8468": " wiser",
  "8469": "uper",
  "8470": "ouquet",
  "8471": "emma",
  "8472": ",'",
  "8473": " travelling",
  "8474": " tumbled",
  "8475": " decoration",
  "8476": " campfire",
  "8477": " bouquet",
  "8478": " Sofia",
  "8479": " Jolly",
  "8480": " Flop",
  "8481": " hairdress",
  "8482": " Nurse",
  "8483": " honesty",
  "8484": " Elle",
  "8485": "Only",
  "8486": " bud",
  "8487": "fus",
  "8488": "ebecca",
  "8489": " welcoming",
  "8490": " offering",
  "8491": " inspired",
  "8492": " Hello",
  "8493": " wealth",
  "8494": " troubles",
  "8495": " occas",
  "8496": " increasing",
  "8497": " Ot",
  "8498": " Jax",
  "8499": " type",
  "8500": " loudest",
  "8501": " parted",
  "8502": " groan",
  "8503": " Chick",
  "8504": " Nutty",
  "8505": "irac",
  "8506": " whales",
  "8507": " Thunder",
  "8508": " Ricky",
  "8509": "yl",
  "8510": " declared",
  "8511": "ooky",
  "8512": " correctly",
  "8513": " Quacky",
  "8514": "yler",
  "8515": " cleared",
  "8516": " beaks",
  "8517": "athan",
  "8518": " cowboys",
  "8519": " nuzzled",
  "8520": " Dotty",
  "8521": " warmly",
  "8522": " prizes",
  "8523": " exch",
  "8524": "Finny",
  "8525": " sirens",
  "8526": " comforting",
  "8527": " Missile",
  "8528": "Should",
  "8529": " rewards",
  "8530": " obeyed",
  "8531": " customers",
  "8532": " connect",
  "8533": " Fel",
  "8534": "shaped",
  "8535": "match",
  "8536": " Flappy",
  "8537": "elieve",
  "8538": "Honey",
  "8539": " towns",
  "8540": " rely",
  "8541": " fantastic",
  "8542": " Magic",
  "8543": " Bingo",
  "8544": " recorder",
  "8545": " poses",
  "8546": " insisting",
  "8547": " bends",
  "8548": " Vicky",
  "8549": "Julie",
  "8550": " trigger",
  "8551": " owns",
  "8552": " Fe",
  "8553": "rench",
  "8554": " surrendered",
  "8555": " supporting",
  "8556": " spoiling",
  "8557": " shares",
  "8558": " hairdresser",
  "8559": "Sun",
  "8560": " wrinkled",
  "8561": " pipes",
  "8562": " cleans",
  "8563": "worm",
  "8564": "ellow",
  "8565": "Outside",
  "8566": " chopped",
  "8567": " Cook",
  "8568": " moons",
  "8569": " beaming",
  "8570": "unes",
  "8571": "Beth",
  "8572": " thanking",
  "8573": " snowy",
  "8574": " Wolf",
  "8575": " scurry",
  "8576": " experien",
  "8577": " enjoyable",
  "8578": " active",
  "8579": " loc",
  "8580": " environ",
  "8581": " coral",
  "8582": " Piggy",
  "8583": " dollar",
  "8584": " Kevin",
  "8585": "elope",
  "8586": " streamers",
  "8587": "udged",
  "8588": "Je",
  "8589": " Bub",
  "8590": " Patty",
  "8591": " Mother",
  "8592": " shorts",
  "8593": " Zack",
  "8594": "inger",
  "8595": "Suzy",
  "8596": " shooed",
  "8597": " examp",
  "8598": " environment",
  "8599": " ill",
  "8600": "Tree",
  "8601": " bruises",
  "8602": " scent",
  "8603": " hisses",
  "8604": " grat",
  "8605": "uster",
  "8606": " Luc",
  "8607": "Bo",
  "8608": " self",
  "8609": " steering",
  "8610": " plugged",
  "8611": " Elsa",
  "8612": " warrior",
  "8613": " visits",
  "8614": "screen",
  "8615": "munk",
  "8616": "aptain",
  "8617": " exercises",
  "8618": " dangers",
  "8619": " cuddles",
  "8620": "irl",
  "8621": " squished",
  "8622": " Rel",
  "8623": " Min",
  "8624": " Ar",
  "8625": " unfortunately",
  "8626": " signing",
  "8627": " Light",
  "8628": "bee",
  "8629": "Ray",
  "8630": " pilots",
  "8631": " gratitude",
  "8632": " disappoint",
  "8633": " tickles",
  "8634": " applauding",
  "8635": "alf",
  "8636": " providing",
  "8637": " Moppy",
  "8638": "Grow",
  "8639": " ting",
  "8640": " responsib",
  "8641": " nights",
  "8642": " Rub",
  "8643": " storms",
  "8644": " jud",
  "8645": " convinced",
  "8646": " badger",
  "8647": " Elsie",
  "8648": "asers",
  "8649": "Abby",
  "8650": " youn",
  "8651": " nearest",
  "8652": " coughed",
  "8653": " choosing",
  "8654": " brains",
  "8655": " Kelly",
  "8656": "Joy",
  "8657": " youngest",
  "8658": " exploded",
  "8659": " arranged",
  "8660": " activity",
  "8661": "erpiece",
  "8662": " Tweety",
  "8663": "Claire",
  "8664": " sunscreen",
  "8665": " rewarding",
  "8666": " peep",
  "8667": " Tre",
  "8668": " Fly",
  "8669": "pr",
  "8670": "good",
  "8671": "Mon",
  "8672": " bond",
  "8673": " Floppy",
  "8674": " Sweet",
  "8675": " Sal",
  "8676": " Katy",
  "8677": " Joan",
  "8678": "sn",
  "8679": "ilities",
  "8680": "Splash",
  "8681": " offic",
  "8682": " annoying",
  "8683": "meow",
  "8684": " soapy",
  "8685": " tapping",
  "8686": " rails",
  "8687": " laces",
  "8688": " appreciated",
  "8689": "Danger",
  "8690": " threads",
  "8691": " congratulated",
  "8692": " Pine",
  "8693": " weighing",
  "8694": " heartbroken",
  "8695": " clerk",
  "8696": " Phil",
  "8697": " Nancy",
  "8698": "boards",
  "8699": " emerged",
  "8700": " crocodiles",
  "8701": " Sil",
  "8702": " Pick",
  "8703": "water",
  "8704": " tin",
  "8705": " snug",
  "8706": " chipmunk",
  "8707": " scram",
  "8708": " attempt",
  "8709": "Momma",
  "8710": "Ahoy",
  "8711": " dial",
  "8712": " Any",
  "8713": " tops",
  "8714": " messed",
  "8715": " hooks",
  "8716": " example",
  "8717": " Kay",
  "8718": " Jonny",
  "8719": " guarding",
  "8720": " soot",
  "8721": " bathed",
  "8722": "Friends",
  "8723": " manager",
  "8724": " erasers",
  "8725": " Tippy",
  "8726": "ortunately",
  "8727": " Microscope",
  "8728": " masterpiece",
  "8729": " fet",
  "8730": " De",
  "8731": "ircle",
  "8732": "etah",
  "8733": "Snowy",
  "8734": " Baa",
  "8735": "mbers",
  "8736": " members",
  "8737": " finishes",
  "8738": " tips",
  "8739": " common",
  "8740": " Tomorrow",
  "8741": " trotted",
  "8742": " nibbled",
  "8743": " kinder",
  "8744": " digs",
  "8745": " beast",
  "8746": "People",
  "8747": " chews",
  "8748": " cheetah",
  "8749": " rips",
  "8750": " particularly",
  "8751": " blond",
  "8752": "Lizzy",
  "8753": " Helping",
  "8754": "ative",
  "8755": " argument",
  "8756": " faith",
  "8757": "Baa",
  "8758": " forgiveness",
  "8759": " earned",
  "8760": "Anne",
  "8761": " observing",
  "8762": " instantly",
  "8763": " generosity",
  "8764": " cages",
  "8765": " Joke",
  "8766": " Cici",
  "8767": "chievous",
  "8768": "Rosie",
  "8769": " fishes",
  "8770": " experienced",
  "8771": " curl",
  "8772": " cheaper",
  "8773": " Jumpy",
  "8774": " mischievous",
  "8775": " Twist",
  "8776": "Gr",
  "8777": " stores",
  "8778": " meowing",
  "8779": " foam",
  "8780": "mered",
  "8781": "etchup",
  "8782": "Cindy",
  "8783": " grandd",
  "8784": " Ag",
  "8785": " sleeps",
  "8786": " mattered",
  "8787": " limp",
  "8788": " teles",
  "8789": " passes",
  "8790": "Sque",
  "8791": " rin",
  "8792": " Momma",
  "8793": "ordinary",
  "8794": "iolet",
  "8795": "ending",
  "8796": " trans",
  "8797": " breaths",
  "8798": "ettle",
  "8799": " moat",
  "8800": " gasps",
  "8801": " Freddie",
  "8802": " hatch",
  "8803": "Got",
  "8804": " rumbling",
  "8805": "over",
  "8806": "abra",
  "8807": " strum",
  "8808": " mats",
  "8809": " grassho",
  "8810": " accomplished",
  "8811": " Hopper",
  "8812": "acing",
  "8813": " thump",
  "8814": " telescope",
  "8815": " smartest",
  "8816": " Ice",
  "8817": " whined",
  "8818": " scrambled",
  "8819": "Gina",
  "8820": " jugg",
  "8821": " farmers",
  "8822": " drip",
  "8823": " gardens",
  "8824": " discoveries",
  "8825": " angrily",
  "8826": "ouraged",
  "8827": "Robbie",
  "8828": " syrup",
  "8829": " styles",
  "8830": " forests",
  "8831": " experiences",
  "8832": " collapsed",
  "8833": " More",
  "8834": "idey",
  "8835": " vegg",
  "8836": "hole",
  "8837": " tor",
  "8838": " medals",
  "8839": " meaning",
  "8840": " conqu",
  "8841": " Does",
  "8842": " types",
  "8843": " otters",
  "8844": " faint",
  "8845": "pit",
  "8846": "adabra",
  "8847": "acock",
  "8848": " snapping",
  "8849": " hardest",
  "8850": " fif",
  "8851": " chilly",
  "8852": "ering",
  "8853": "Pinky",
  "8854": " movements",
  "8855": " expression",
  "8856": " court",
  "8857": " affect",
  "8858": "Never",
  "8859": " unfair",
  "8860": " surv",
  "8861": " bubbly",
  "8862": "yd",
  "8863": " vests",
  "8864": " scores",
  "8865": " extraordinary",
  "8866": "Whenever",
  "8867": " toothbrush",
  "8868": " horri",
  "8869": " attitude",
  "8870": " vibr",
  "8871": " bluebird",
  "8872": " Monkey",
  "8873": "mel",
  "8874": "Mo",
  "8875": " ketchup",
  "8876": "lls",
  "8877": " spears",
  "8878": " sooner",
  "8879": "Mother",
  "8880": " scri",
  "8881": " behaviour",
  "8882": " Berry",
  "8883": " grasshopper",
  "8884": " momma",
  "8885": " habit",
  "8886": " afar",
  "8887": "erts",
  "8888": " patches",
  "8889": "lo",
  "8890": "Karen",
  "8891": " pokes",
  "8892": " Ashley",
  "8893": "ieves",
  "8894": "Jacob",
  "8895": " thicker",
  "8896": " slithered",
  "8897": " shrunk",
  "8898": " prickly",
  "8899": " glittering",
  "8900": " Friend",
  "8901": " Fle",
  "8902": "Jon",
  "8903": " topp",
  "8904": " squeezes",
  "8905": " classmates",
  "8906": " Terry",
  "8907": " icky",
  "8908": " kneeling",
  "8909": " expert",
  "8910": " announced",
  "8911": "elling",
  "8912": " Super",
  "8913": " Riri",
  "8914": " peacock",
  "8915": " marking",
  "8916": "ctric",
  "8917": " zigzags",
  "8918": " watermel",
  "8919": " thieves",
  "8920": " costs",
  "8921": " Cally",
  "8922": " Achoo",
  "8923": " skirts",
  "8924": " jumper",
  "8925": " hood",
  "8926": " acts",
  "8927": " Jason",
  "8928": "affle",
  "8929": " Zog",
  "8930": " Swim",
  "8931": " Puffy",
  "8932": " Becky",
  "8933": " App",
  "8934": " wolves",
  "8935": " concer",
  "8936": " Cloud",
  "8937": "Papa",
  "8938": " thumbs",
  "8939": " squeaky",
  "8940": " cocoon",
  "8941": " woodcut",
  "8942": " boards",
  "8943": " Eliza",
  "8944": "bu",
  "8945": " servant",
  "8946": "idence",
  "8947": " trading",
  "8948": " raking",
  "8949": " cheating",
  "8950": "Jessie",
  "8951": " Daniel",
  "8952": "cat",
  "8953": " tidied",
  "8954": " explaining",
  "8955": " Eric",
  "8956": "rick",
  "8957": "Frog",
  "8958": " luckily",
  "8959": " biscuit",
  "8960": " Ac",
  "8961": "anced",
  "8962": " lunchtime",
  "8963": " spilling",
  "8964": " Day",
  "8965": "ror",
  "8966": " transform",
  "8967": " desserts",
  "8968": " Pig",
  "8969": "Fire",
  "8970": " Use",
  "8971": " Maddy",
  "8972": " Animal",
  "8973": " Still",
  "8974": " Mine",
  "8975": "rough",
  "8976": " Gill",
  "8977": " Captain",
  "8978": "amma",
  "8979": " messages",
  "8980": " mirac",
  "8981": "idy",
  "8982": " windowsill",
  "8983": " chill",
  "8984": " beating",
  "8985": " Tammy",
  "8986": " Lung",
  "8987": " Gilly",
  "8988": "oot",
  "8989": " seeking",
  "8990": "sess",
  "8991": " actor",
  "8992": " Rainbow",
  "8993": " Lina",
  "8994": " William",
  "8995": "its",
  "8996": " Math",
  "8997": "pril",
  "8998": "acles",
  "8999": "Freeze",
  "9000": "Any",
  "9001": " pressing",
  "9002": " foreshadow",
  "9003": " flashing",
  "9004": " dev",
  "9005": "war",
  "9006": "Bluey",
  "9007": " watermelon",
  "9008": " leans",
  "9009": " Step",
  "9010": " Pinch",
  "9011": " Hi",
  "9012": "racadabra",
  "9013": "Bounce",
  "9014": " positive",
  "9015": " hissing",
  "9016": " discouraged",
  "9017": " cloths",
  "9018": " Tiger",
  "9019": " Monster",
  "9020": " Frankie",
  "9021": " winding",
  "9022": " funn",
  "9023": " forts",
  "9024": " dripped",
  "9025": " Wil",
  "9026": "pop",
  "9027": " woodcutter",
  "9028": " teapot",
  "9029": " compete",
  "9030": " tidying",
  "9031": " disagreeing",
  "9032": " Flora",
  "9033": "icking",
  "9034": " trusts",
  "9035": " glimmering",
  "9036": " veggies",
  "9037": " kangaroos",
  "9038": " tempted",
  "9039": " dock",
  "9040": " Peep",
  "9041": " landing",
  "9042": " Tooth",
  "9043": " shallow",
  "9044": " overw",
  "9045": "Nothing",
  "9046": " formed",
  "9047": "lers",
  "9048": " rack",
  "9049": " fade",
  "9050": " comets",
  "9051": "flowers",
  "9052": "Bug",
  "9053": " worst",
  "9054": " officers",
  "9055": " electric",
  "9056": " cops",
  "9057": "iving",
  "9058": "eling",
  "9059": " sleds",
  "9060": " papa",
  "9061": " apology",
  "9062": " Life",
  "9063": "creams",
  "9064": "ai",
  "9065": " Silver",
  "9066": "upid",
  "9067": " ass",
  "9068": "Owl",
  "9069": " sav",
  "9070": " Shark",
  "9071": " Mag",
  "9072": " Jelly",
  "9073": " 4",
  "9074": "Rain",
  "9075": " situations",
  "9076": " conversation",
  "9077": " Butter",
  "9078": " Roger",
  "9079": " Charlotte",
  "9080": "\u201d,",
  "9081": "storm",
  "9082": "aye",
  "9083": " suns",
  "9084": " scurrying",
  "9085": " pizzas",
  "9086": " overwhel",
  "9087": " ding",
  "9088": " zips",
  "9089": " structures",
  "9090": " miller",
  "9091": " granddaughter",
  "9092": " foggy",
  "9093": " Rufus",
  "9094": " Olivia",
  "9095": " Hurry",
  "9096": " Amber",
  "9097": "Zoe",
  "9098": " webs",
  "9099": " Janey",
  "9100": " deserved",
  "9101": "Rabbit",
  "9102": " snorted",
  "9103": " quacking",
  "9104": " opportunity",
  "9105": " differences",
  "9106": " cubs",
  "9107": " Yummy",
  "9108": " Spidey",
  "9109": " Sasha",
  "9110": " Mixie",
  "9111": " Buster",
  "9112": " rhino",
  "9113": " Tell",
  "9114": " Gold",
  "9115": "ended",
  "9116": "Fifi",
  "9117": " heaven",
  "9118": "ifully",
  "9119": " levers",
  "9120": " Birds",
  "9121": "ssess",
  "9122": " unlo",
  "9123": " possess",
  "9124": " pose",
  "9125": " inchworm",
  "9126": " inter",
  "9127": " approach",
  "9128": " cooperate",
  "9129": " Tyler",
  "9130": " Boom",
  "9131": "ragon",
  "9132": " seagulls",
  "9133": " Smoke",
  "9134": " Inky",
  "9135": " Felix",
  "9136": "welcome",
  "9137": "ssy",
  "9138": "sers",
  "9139": "of",
  "9140": "?\u201d.",
  "9141": "snap",
  "9142": "andra",
  "9143": " sneaks",
  "9144": " disappointment",
  "9145": "ocular",
  "9146": " speaks",
  "9147": " ribbit",
  "9148": " artwork",
  "9149": " robin",
  "9150": " binocular",
  "9151": " Snake",
  "9152": " Amanda",
  "9153": " surfed",
  "9154": " scowl",
  "9155": " answering",
  "9156": " shortcut",
  "9157": " Grand",
  "9158": " sipped",
  "9159": " reun",
  "9160": " dep",
  "9161": " amused",
  "9162": " Circle",
  "9163": "Climb",
  "9164": " arrest",
  "9165": " unwrapped",
  "9166": " puppets",
  "9167": " applause",
  "9168": "ugar",
  "9169": "Eat",
  "9170": " repeats",
  "9171": " pepperoni",
  "9172": " attacked",
  "9173": " Cars",
  "9174": " Brian",
  "9175": "Deal",
  "9176": " paddling",
  "9177": " keyhole",
  "9178": " checkout",
  "9179": " Mae",
  "9180": "Lia",
  "9181": " visitor",
  "9182": " unz",
  "9183": " striking",
  "9184": " spooky",
  "9185": " croaked",
  "9186": "orsie",
  "9187": " Yellow",
  "9188": " Otto",
  "9189": " Gus",
  "9190": "sie",
  "9191": "gar",
  "9192": "cidents",
  "9193": "Each",
  "9194": " groaned",
  "9195": " consider",
  "9196": " beautifully",
  "9197": " Jean",
  "9198": " waters",
  "9199": " swimsuits",
  "9200": " checking",
  "9201": "uses",
  "9202": "jest",
  "9203": " invent",
  "9204": " groom",
  "9205": " Squeak",
  "9206": " Slinky",
  "9207": " Auntie",
  "9208": "yle",
  "9209": "Luke",
  "9210": " shrugs",
  "9211": " nets",
  "9212": " exams",
  "9213": " Since",
  "9214": "udy",
  "9215": "otion",
  "9216": "ets",
  "9217": " drying",
  "9218": " Rebecca",
  "9219": "artin",
  "9220": "agine",
  "9221": " sobbing",
  "9222": " lump",
  "9223": " honks",
  "9224": " chin",
  "9225": "lest",
  "9226": " shyly",
  "9227": " shoots",
  "9228": " heels",
  "9229": " cheerfully",
  "9230": "ili",
  "9231": "hny",
  "9232": "esses",
  "9233": " shh",
  "9234": "anish",
  "9235": " whimpered",
  "9236": " magnifying",
  "9237": " healthier",
  "9238": " hangs",
  "9239": "icious",
  "9240": "Milo",
  "9241": " squinted",
  "9242": " Mus",
  "9243": " caterpillars",
  "9244": " baa",
  "9245": "izzes",
  "9246": "Slowly",
  "9247": " fries",
  "9248": " Ratty",
  "9249": "ulpture",
  "9250": " sculpture",
  "9251": " fascinating",
  "9252": " blamed",
  "9253": " Find",
  "9254": "ouched",
  "9255": "ching",
  "9256": " frustration",
  "9257": " Waffle",
  "9258": " Tip",
  "9259": "edic",
  "9260": " shimmering",
  "9261": " poss",
  "9262": " pleas",
  "9263": " Penelope",
  "9264": " numbered",
  "9265": " Peace",
  "9266": "Sharing",
  "9267": " suck",
  "9268": " nibble",
  "9269": "Pepper",
  "9270": " flowing",
  "9271": " Off",
  "9272": "othy",
  "9273": "ibbles",
  "9274": "ellie",
  "9275": "amil",
  "9276": "hings",
  "9277": " raked",
  "9278": " grumbled",
  "9279": "that",
  "9280": "eat",
  "9281": "Bubbles",
  "9282": " guards",
  "9283": " builder",
  "9284": "racted",
  "9285": " swaying",
  "9286": " sprinkle",
  "9287": " snort",
  "9288": " petting",
  "9289": " facing",
  "9290": " details",
  "9291": " Woolly",
  "9292": " mysteries",
  "9293": " Match",
  "9294": " Har",
  "9295": "sey",
  "9296": " flock",
  "9297": " enemy",
  "9298": " Boat",
  "9299": " textures",
  "9300": " tablet",
  "9301": " popping",
  "9302": " goodies",
  "9303": " fans",
  "9304": " crops",
  "9305": " Curious",
  "9306": " Barry",
  "9307": "Yesterday",
  "9308": " wig",
  "9309": " wildflowers",
  "9310": " stacks",
  "9311": " marve",
  "9312": " local",
  "9313": " countries",
  "9314": " Seeing",
  "9315": " Jenn",
  "9316": " Gracie",
  "9317": "how",
  "9318": " knobs",
  "9319": " bushy",
  "9320": " Tessa",
  "9321": " peeped",
  "9322": " stew",
  "9323": " hunting",
  "9324": " drowned",
  "9325": " bowing",
  "9326": " binoculars",
  "9327": " angrier",
  "9328": " Bubu",
  "9329": " maps",
  "9330": " quizzes",
  "9331": " niece",
  "9332": " moonlight",
  "9333": " Glow",
  "9334": " Deal",
  "9335": " weaker",
  "9336": " wrench",
  "9337": " outfits",
  "9338": " Johnson",
  "9339": "OO",
  "9340": " whoosh",
  "9341": " mindful",
  "9342": " hesitation",
  "9343": " crowded",
  "9344": "cycles",
  "9345": "Squ",
  "9346": " flashes",
  "9347": " endings",
  "9348": " Beef",
  "9349": "oll",
  "9350": "Im",
  "9351": " property",
  "9352": "stand",
  "9353": "getic",
  "9354": "amiliar",
  "9355": " unless",
  "9356": " imaginations",
  "9357": " fond",
  "9358": " carts",
  "9359": " boil",
  "9360": " ability",
  "9361": " Oxy",
  "9362": " Andrew",
  "9363": " Accidents",
  "9364": " responsibility",
  "9365": " glared",
  "9366": " Right",
  "9367": " unfamiliar",
  "9368": " spaces",
  "9369": " microw",
  "9370": " knit",
  "9371": " haven",
  "9372": " folds",
  "9373": " \n \n\n",
  "9374": "ths",
  "9375": "saw",
  "9376": "Tuna",
  "9377": " dirtier",
  "9378": " Pet",
  "9379": "ibly",
  "9380": "bank",
  "9381": " pouch",
  "9382": " microwave",
  "9383": " desks",
  "9384": "Bless",
  "9385": " cracker",
  "9386": "rnie",
  "9387": "free",
  "9388": "Cra",
  "9389": " swapped",
  "9390": " member",
  "9391": " date",
  "9392": " aston",
  "9393": " Oxygen",
  "9394": "Want",
  "9395": " whine",
  "9396": " softened",
  "9397": " rebu",
  "9398": " Ring",
  "9399": " Ravi",
  "9400": "lt",
  "9401": " quacks",
  "9402": " doorstep",
  "9403": " disappearing",
  "9404": " Peggy",
  "9405": " Helen",
  "9406": " Bun",
  "9407": " writer",
  "9408": " natur",
  "9409": " blushed",
  "9410": " Chip",
  "9411": "scar",
  "9412": " listener",
  "9413": " Too",
  "9414": " Spicy",
  "9415": " Fix",
  "9416": "venir",
  "9417": " priv",
  "9418": "upt",
  "9419": " souvenir",
  "9420": " palms",
  "9421": " noticing",
  "9422": "repe",
  "9423": "poison",
  "9424": "endant",
  "9425": " laws",
  "9426": " Past",
  "9427": "str",
  "9428": "repeat",
  "9429": "entr",
  "9430": " disaster",
  "9431": " Tra",
  "9432": " Res",
  "9433": " Gabby",
  "9434": "reg",
  "9435": "Robby",
  "9436": " phones",
  "9437": "ala",
  "9438": "Ava",
  "9439": " overwhelmed",
  "9440": " confidence",
  "9441": " Li",
  "9442": " Coal",
  "9443": " Cut",
  "9444": " Bert",
  "9445": "Che",
  "9446": " timid",
  "9447": " stirs",
  "9448": "ingly",
  "9449": "Being",
  "9450": " mayor",
  "9451": " flick",
  "9452": "guess",
  "9453": "asmine",
  "9454": " tugging",
  "9455": " satisfa",
  "9456": " Pretty",
  "9457": " Mole",
  "9458": " Books",
  "9459": "lor",
  "9460": " untangle",
  "9461": " satisfaction",
  "9462": " owls",
  "9463": " mailing",
  "9464": " injured",
  "9465": " Immediately",
  "9466": "Whose",
  "9467": " concentr",
  "9468": " White",
  "9469": "Fly",
  "9470": " March",
  "9471": " Eat",
  "9472": " Animals",
  "9473": "this",
  "9474": "mers",
  "9475": "icate",
  "9476": "Sc",
  "9477": "Mittens",
  "9478": " lim",
  "9479": "Mabel",
  "9480": " prank",
  "9481": " Wonder",
  "9482": " Triangle",
  "9483": " Startled",
  "9484": " Run",
  "9485": " Nora",
  "9486": " Kn",
  "9487": " Bonnie",
  "9488": "bling",
  "9489": "Wiggly",
  "9490": " hooves",
  "9491": " Sir",
  "9492": " Pot",
  "9493": " Melissa",
  "9494": " Close",
  "9495": "well",
  "9496": "Jeff",
  "9497": " snar",
  "9498": " fixer",
  "9499": " Clean",
  "9500": " clut",
  "9501": "lish",
  "9502": "Excited",
  "9503": " skies",
  "9504": " instrument",
  "9505": " capt",
  "9506": " Trucky",
  "9507": "adually",
  "9508": " stains",
  "9509": " rinse",
  "9510": " Matilda",
  "9511": " Horsie",
  "9512": " Faye",
  "9513": " pecks",
  "9514": " disagre",
  "9515": " creak",
  "9516": "iky",
  "9517": " wriggled",
  "9518": " bumping",
  "9519": " Sleepy",
  "9520": "Susan",
  "9521": " shave",
  "9522": "ulf",
  "9523": " bending",
  "9524": " Sing",
  "9525": " Icy",
  "9526": " Heli",
  "9527": " Crabby",
  "9528": "cessary",
  "9529": " swirl",
  "9530": " ruff",
  "9531": " exploration",
  "9532": "Playing",
  "9533": "Close",
  "9534": " sandpit",
  "9535": " rods",
  "9536": " lever",
  "9537": " chatted",
  "9538": " Scissors",
  "9539": "Sm",
  "9540": "Make",
  "9541": " fooled",
  "9542": " facts",
  "9543": " attaching",
  "9544": " Candy",
  "9545": " concerned",
  "9546": " burger",
  "9547": " Bro",
  "9548": " reversing",
  "9549": " glows",
  "9550": " clearly",
  "9551": " circ",
  "9552": " certainly",
  "9553": "els",
  "9554": "Maya",
  "9555": " sometime",
  "9556": " smelt",
  "9557": " salon",
  "9558": " lava",
  "9559": " fetched",
  "9560": " compan",
  "9561": "Wally",
  "9562": " motorcycles",
  "9563": " challenges",
  "9564": " troll",
  "9565": " tunes",
  "9566": " prod",
  "9567": " oldest",
  "9568": " fireflies",
  "9569": "Ring",
  "9570": " kissing",
  "9571": " differently",
  "9572": " blonde",
  "9573": "Kayla",
  "9574": " warmed",
  "9575": " hates",
  "9576": " bound",
  "9577": " Lots",
  "9578": " Bobbie",
  "9579": "urple",
  "9580": "erg",
  "9581": " unlocking",
  "9582": " rubb",
  "9583": " natural",
  "9584": " conquered",
  "9585": "sa",
  "9586": "Tara",
  "9587": "Dino",
  "9588": "Abracadabra",
  "9589": " riverbank",
  "9590": " detect",
  "9591": " cutter",
  "9592": " cupcake",
  "9593": " toppings",
  "9594": " sends",
  "9595": " alley",
  "9596": " Flap",
  "9597": "sorry",
  "9598": "Isn",
  "9599": " swirls",
  "9600": " sensation",
  "9601": " realise",
  "9602": " Open",
  "9603": " Flopsy",
  "9604": "Julia",
  "9605": " wiggling",
  "9606": " munched",
  "9607": " fist",
  "9608": " brakes",
  "9609": " banging",
  "9610": " Cammy",
  "9611": " stings",
  "9612": " hippos",
  "9613": " clips",
  "9614": " Reliable",
  "9615": "Hope",
  "9616": "Fish",
  "9617": "Doctor",
  "9618": " swayed",
  "9619": " robe",
  "9620": " miracle",
  "9621": " halves",
  "9622": " Greeny",
  "9623": " survive",
  "9624": " ostriches",
  "9625": " Pink",
  "9626": " Climb",
  "9627": "ula",
  "9628": "keepers",
  "9629": "bert",
  "9630": "Michael",
  "9631": " torto",
  "9632": " otherwise",
  "9633": " embra",
  "9634": " crushed",
  "9635": " bubbling",
  "9636": " tents",
  "9637": " Of",
  "9638": " Looking",
  "9639": "ani",
  "9640": " vinegar",
  "9641": " rubbish",
  "9642": " repairing",
  "9643": " Rh",
  "9644": "Many",
  "9645": " stretchy",
  "9646": " rags",
  "9647": " lizards",
  "9648": " Working",
  "9649": " Flicker",
  "9650": " passenger",
  "9651": " Which",
  "9652": " Ed",
  "9653": "aste",
  "9654": " vibrant",
  "9655": " tortoise",
  "9656": " scene",
  "9657": " pounced",
  "9658": " copied",
  "9659": "Suzie",
  "9660": " poop",
  "9661": " mooed",
  "9662": " desperately",
  "9663": " Grump",
  "9664": "gr",
  "9665": " glided",
  "9666": " bas",
  "9667": "rap",
  "9668": " snip",
  "9669": " majest",
  "9670": " intently",
  "9671": " calmer",
  "9672": " Sundays",
  "9673": " Lightning",
  "9674": "smelling",
  "9675": "net",
  "9676": " woken",
  "9677": " twel",
  "9678": " judges",
  "9679": " joyfully",
  "9680": " jing",
  "9681": " coolest",
  "9682": " capes",
  "9683": " Per",
  "9684": " lectures",
  "9685": " glob",
  "9686": " Jody",
  "9687": "lyn",
  "9688": "isible",
  "9689": " hips",
  "9690": " cousins",
  "9691": " astonished",
  "9692": "why",
  "9693": " reunited",
  "9694": " arrives",
  "9695": " Outside",
  "9696": " Lu",
  "9697": "uno",
  "9698": "Eww",
  "9699": " successfully",
  "9700": " speaker",
  "9701": " invisible",
  "9702": " guesses",
  "9703": " gooey",
  "9704": " twelve",
  "9705": " goodness",
  "9706": " chatting",
  "9707": " bats",
  "9708": "urity",
  "9709": "Mikey",
  "9710": " computers",
  "9711": " Carla",
  "9712": "nded",
  "9713": "mie",
  "9714": "istory",
  "9715": " stacking",
  "9716": " snowflake",
  "9717": " pounds",
  "9718": "Zigzag",
  "9719": " reappeared",
  "9720": " racer",
  "9721": " parks",
  "9722": " desperate",
  "9723": " companion",
  "9724": " commun",
  "9725": "hile",
  "9726": "bed",
  "9727": "Ol",
  "9728": " stomachs",
  "9729": " luckiest",
  "9730": " level",
  "9731": " gall",
  "9732": " dou",
  "9733": " awhile",
  "9734": " ank",
  "9735": "Linda",
  "9736": " tale",
  "9737": " soda",
  "9738": " sells",
  "9739": " dumb",
  "9740": " crickets",
  "9741": " Sugar",
  "9742": "iggles",
  "9743": "Nick",
  "9744": "Lou",
  "9745": " winds",
  "9746": " sus",
  "9747": " gates",
  "9748": " disobeyed",
  "9749": " disagreement",
  "9750": " Steven",
  "9751": " Orange",
  "9752": "More",
  "9753": " tongues",
  "9754": " pearls",
  "9755": " hoses",
  "9756": " crisp",
  "9757": " Whee",
  "9758": "izza",
  "9759": "ites",
  "9760": " popsic",
  "9761": " loyalty",
  "9762": "rent",
  "9763": " rider",
  "9764": " Rosa",
  "9765": "usion",
  "9766": " CD",
  "9767": "pan",
  "9768": "Ooh",
  "9769": " Coby",
  "9770": " Black",
  "9771": " surely",
  "9772": " alligators",
  "9773": " abo",
  "9774": " Law",
  "9775": " Annabelle",
  "9776": "des",
  "9777": "colored",
  "9778": " occasion",
  "9779": " bund",
  "9780": "rum",
  "9781": "dog",
  "9782": "!\u2019",
  "9783": " stun",
  "9784": " separating",
  "9785": " rebuild",
  "9786": " guitars",
  "9787": " chicks",
  "9788": "chief",
  "9789": " seashe",
  "9790": " intelligence",
  "9791": " creep",
  "9792": " cuc",
  "9793": " aboard",
  "9794": " Raven",
  "9795": " Iron",
  "9796": " April",
  "9797": "Found",
  "9798": "Catch",
  "9799": " croak",
  "9800": " caution",
  "9801": " Winky",
  "9802": " Violet",
  "9803": " Care",
  "9804": "aids",
  "9805": "Something",
  "9806": " underwater",
  "9807": " learner",
  "9808": " Old",
  "9809": "solut",
  "9810": "Jan",
  "9811": " whines",
  "9812": " spiky",
  "9813": " revealing",
  "9814": " rins",
  "9815": " Uni",
  "9816": "working",
  "9817": "udge",
  "9818": "!'.",
  "9819": " tickling",
  "9820": " hatched",
  "9821": " escap",
  "9822": " crouched",
  "9823": " Settle",
  "9824": " Roar",
  "9825": " globe",
  "9826": " blooms",
  "9827": " Ba",
  "9828": " ''",
  "9829": "everse",
  "9830": " strokes",
  "9831": " prog",
  "9832": " leaking",
  "9833": " appearance",
  "9834": "urricane",
  "9835": "stop",
  "9836": "seph",
  "9837": "ifer",
  "9838": "fived",
  "9839": "Snap",
  "9840": " taps",
  "9841": " squashes",
  "9842": " guardian",
  "9843": " Socky",
  "9844": "ealing",
  "9845": "arning",
  "9846": " zookeepers",
  "9847": " tant",
  "9848": " routine",
  "9849": " persistence",
  "9850": " painful",
  "9851": " lighting",
  "9852": " doves",
  "9853": " blame",
  "9854": "Sleep",
  "9855": "Ralph",
  "9856": "Chicky",
  "9857": " tempting",
  "9858": " ripp",
  "9859": " quilt",
  "9860": " admit",
  "9861": "Three",
  "9862": "Toys",
  "9863": "Ahh",
  "9864": " shattered",
  "9865": " mold",
  "9866": " deeply",
  "9867": " centre",
  "9868": " Puff",
  "9869": "ggles",
  "9870": "Sophia",
  "9871": "Matt",
  "9872": " throne",
  "9873": " squirted",
  "9874": " security",
  "9875": " realizing",
  "9876": " peeks",
  "9877": " electricity",
  "9878": " burgers",
  "9879": " allowing",
  "9880": " Spin",
  "9881": "emon",
  "9882": "con",
  "9883": " cooks",
  "9884": " Liam",
  "9885": "ushes",
  "9886": "orth",
  "9887": "oss",
  "9888": "cker",
  "9889": "Jessica",
  "9890": " lar",
  "9891": " exchange",
  "9892": " chopping",
  "9893": "vering",
  "9894": "Share",
  "9895": "Sw",
  "9896": " waded",
  "9897": " sweetly",
  "9898": " sweeter",
  "9899": " glittered",
  "9900": " Race",
  "9901": " Quickly",
  "9902": " Alf",
  "9903": "isapp",
  "9904": " rinsed",
  "9905": " furious",
  "9906": " builders",
  "9907": " melts",
  "9908": " energetic",
  "9909": "Zero",
  "9910": " melody",
  "9911": " goggles",
  "9912": " defeated",
  "9913": " container",
  "9914": " Inch",
  "9915": " Giant",
  "9916": " Comet",
  "9917": "bang",
  "9918": "asy",
  "9919": " tantrum",
  "9920": " sniffled",
  "9921": " chooses",
  "9922": " Otherwise",
  "9923": " Cats",
  "9924": " competing",
  "9925": "eremy",
  "9926": " protection",
  "9927": " hudd",
  "9928": " cooed",
  "9929": " buckles",
  "9930": " attempts",
  "9931": " Sharp",
  "9932": " Mila",
  "9933": " Din",
  "9934": "arted",
  "9935": "Shoo",
  "9936": " undone",
  "9937": " seriously",
  "9938": " larger",
  "9939": " lull",
  "9940": " Rara",
  "9941": " Park",
  "9942": " Duke",
  "9943": "Lizzie",
  "9944": " tossing",
  "9945": " helicopters",
  "9946": " cluck",
  "9947": " Whale",
  "9948": " Pinchy",
  "9949": " Cher",
  "9950": "Still",
  "9951": "Sweet",
  "9952": " dedic",
  "9953": " Tears",
  "9954": " Smo",
  "9955": " Over",
  "9956": " Hor",
  "9957": "solutely",
  "9958": "Squeaky",
  "9959": " hummed",
  "9960": " courageous",
  "9961": " Ma",
  "9962": "Use",
  "9963": "Maddy",
  "9964": "Everything",
  "9965": "Curious",
  "9966": " racers",
  "9967": " patients",
  "9968": " muster",
  "9969": " god",
  "9970": " deserves",
  "9971": " aloud",
  "9972": " Things",
  "9973": " Dragon",
  "9974": "aps",
  "9975": " Squee",
  "9976": " tours",
  "9977": " meets",
  "9978": " marvel",
  "9979": " Rusty",
  "9980": " Liza",
  "9981": " Jet",
  "9982": "Froggy",
  "9983": " wrapper",
  "9984": " Reddy",
  "9985": " Hops",
  "9986": " Crusty",
  "9987": " whiskers",
  "9988": " nicest",
  "9989": " improving",
  "9990": " booth",
  "9991": "raw",
  "9992": " pairs",
  "9993": " meadows",
  "9994": " Land",
  "9995": "ware",
  "9996": "Surrender",
  "9997": "Rocky",
  "9998": "!'\"",
  "9999": " winks"
}
